{
  "version": "1.0",
  "truncation": null,
  "padding": null,
  "added_tokens": [
    {
      "id": 0,
      "content": "<unk>",
      "single_word": false,
      "lstrip": false,
      "rstrip": false,
      "normalized": false,
      "special": true
    },
    {
      "id": 1,
      "content": "<s>",
      "single_word": false,
      "lstrip": false,
      "rstrip": false,
      "normalized": false,
      "special": true
    },
    {
      "id": 2,
      "content": "</s>",
      "single_word": false,
      "lstrip": false,
      "rstrip": false,
      "normalized": false,
      "special": true
    },
    {
      "id": 3,
      "content": "<|im_start|>",
      "single_word": false,
      "lstrip": false,
      "rstrip": false,
      "normalized": false,
      "special": true
    },
    {
      "id": 4,
      "content": "<|im_end|>",
      "single_word": false,
      "lstrip": false,
      "rstrip": false,
      "normalized": false,
      "special": true
    }
  ],
  "normalizer": {
    "type": "NFKC"
  },
  "pre_tokenizer": {
    "type": "ByteLevel",
    "add_prefix_space": false,
    "trim_offsets": true,
    "use_regex": true
  },
  "post_processor": null,
  "decoder": {
    "type": "ByteLevel",
    "add_prefix_space": true,
    "trim_offsets": true,
    "use_regex": true
  },
  "model": {
    "type": "BPE",
    "dropout": null,
    "unk_token": "<unk>",
    "continuing_subword_prefix": null,
    "end_of_word_suffix": null,
    "fuse_unk": false,
    "byte_fallback": false,
    "ignore_merges": false,
    "vocab": {
      "<unk>": 0,
      "<s>": 1,
      "</s>": 2,
      "<|im_start|>": 3,
      "<|im_end|>": 4,
      "!": 5,
      "\"": 6,
      "#": 7,
      "$": 8,
      "%": 9,
      "&": 10,
      "'": 11,
      "(": 12,
      ")": 13,
      "*": 14,
      "+": 15,
      ",": 16,
      "-": 17,
      ".": 18,
      "/": 19,
      "0": 20,
      "1": 21,
      "2": 22,
      "3": 23,
      "4": 24,
      "5": 25,
      "6": 26,
      "7": 27,
      "8": 28,
      "9": 29,
      ":": 30,
      ";": 31,
      "<": 32,
      "=": 33,
      ">": 34,
      "?": 35,
      "@": 36,
      "A": 37,
      "B": 38,
      "C": 39,
      "D": 40,
      "E": 41,
      "F": 42,
      "G": 43,
      "H": 44,
      "I": 45,
      "J": 46,
      "K": 47,
      "L": 48,
      "M": 49,
      "N": 50,
      "O": 51,
      "P": 52,
      "Q": 53,
      "R": 54,
      "S": 55,
      "T": 56,
      "U": 57,
      "V": 58,
      "W": 59,
      "X": 60,
      "Y": 61,
      "Z": 62,
      "[": 63,
      "\\": 64,
      "]": 65,
      "^": 66,
      "_": 67,
      "`": 68,
      "a": 69,
      "b": 70,
      "c": 71,
      "d": 72,
      "e": 73,
      "f": 74,
      "g": 75,
      "h": 76,
      "i": 77,
      "j": 78,
      "k": 79,
      "l": 80,
      "m": 81,
      "n": 82,
      "o": 83,
      "p": 84,
      "q": 85,
      "r": 86,
      "s": 87,
      "t": 88,
      "u": 89,
      "v": 90,
      "w": 91,
      "x": 92,
      "y": 93,
      "z": 94,
      "{": 95,
      "|": 96,
      "}": 97,
      "~": 98,
      "¡": 99,
      "¢": 100,
      "£": 101,
      "¤": 102,
      "¥": 103,
      "¦": 104,
      "§": 105,
      "¨": 106,
      "©": 107,
      "ª": 108,
      "«": 109,
      "¬": 110,
      "®": 111,
      "¯": 112,
      "°": 113,
      "±": 114,
      "²": 115,
      "³": 116,
      "´": 117,
      "µ": 118,
      "¶": 119,
      "·": 120,
      "¸": 121,
      "¹": 122,
      "º": 123,
      "»": 124,
      "¼": 125,
      "½": 126,
      "¾": 127,
      "¿": 128,
      "À": 129,
      "Á": 130,
      "Â": 131,
      "Ã": 132,
      "Ä": 133,
      "Å": 134,
      "Æ": 135,
      "Ç": 136,
      "È": 137,
      "É": 138,
      "Ê": 139,
      "Ë": 140,
      "Ì": 141,
      "Í": 142,
      "Î": 143,
      "Ï": 144,
      "Ð": 145,
      "Ñ": 146,
      "Ò": 147,
      "Ó": 148,
      "Ô": 149,
      "Õ": 150,
      "Ö": 151,
      "×": 152,
      "Ø": 153,
      "Ù": 154,
      "Ú": 155,
      "Û": 156,
      "Ü": 157,
      "Ý": 158,
      "Þ": 159,
      "ß": 160,
      "à": 161,
      "á": 162,
      "â": 163,
      "ã": 164,
      "ä": 165,
      "å": 166,
      "æ": 167,
      "ç": 168,
      "è": 169,
      "é": 170,
      "ê": 171,
      "ë": 172,
      "ì": 173,
      "í": 174,
      "î": 175,
      "ï": 176,
      "ð": 177,
      "ñ": 178,
      "ò": 179,
      "ó": 180,
      "ô": 181,
      "õ": 182,
      "ö": 183,
      "÷": 184,
      "ø": 185,
      "ù": 186,
      "ú": 187,
      "û": 188,
      "ü": 189,
      "ý": 190,
      "þ": 191,
      "ÿ": 192,
      "Ā": 193,
      "ā": 194,
      "Ă": 195,
      "ă": 196,
      "Ą": 197,
      "ą": 198,
      "Ć": 199,
      "ć": 200,
      "Ĉ": 201,
      "ĉ": 202,
      "Ċ": 203,
      "ċ": 204,
      "Č": 205,
      "č": 206,
      "Ď": 207,
      "ď": 208,
      "Đ": 209,
      "đ": 210,
      "Ē": 211,
      "ē": 212,
      "Ĕ": 213,
      "ĕ": 214,
      "Ė": 215,
      "ė": 216,
      "Ę": 217,
      "ę": 218,
      "Ě": 219,
      "ě": 220,
      "Ĝ": 221,
      "ĝ": 222,
      "Ğ": 223,
      "ğ": 224,
      "Ġ": 225,
      "ġ": 226,
      "Ģ": 227,
      "ģ": 228,
      "Ĥ": 229,
      "ĥ": 230,
      "Ħ": 231,
      "ħ": 232,
      "Ĩ": 233,
      "ĩ": 234,
      "Ī": 235,
      "ī": 236,
      "Ĭ": 237,
      "ĭ": 238,
      "Į": 239,
      "į": 240,
      "İ": 241,
      "ı": 242,
      "Ĳ": 243,
      "ĳ": 244,
      "Ĵ": 245,
      "ĵ": 246,
      "Ķ": 247,
      "ķ": 248,
      "ĸ": 249,
      "Ĺ": 250,
      "ĺ": 251,
      "Ļ": 252,
      "ļ": 253,
      "Ľ": 254,
      "ľ": 255,
      "Ŀ": 256,
      "ŀ": 257,
      "Ł": 258,
      "ł": 259,
      "Ń": 260,
      "Ġt": 261,
      "Ġa": 262,
      "in": 263,
      "he": 264,
      "re": 265,
      "ä¸": 266,
      "on": 267,
      "at": 268,
      "çļ": 269,
      "çļĦ": 270,
      "Ġs": 271,
      "Ġc": 272,
      "nd": 273,
      "er": 274,
      "ãĢ": 275,
      "Ġthe": 276,
      "es": 277,
      "en": 278,
      "or": 279,
      "an": 280,
      "Ġand": 281,
      "Ġp": 282,
      "ing": 283,
      "it": 284,
      "al": 285,
      "ãĢĤ": 286,
      "Ġo": 287,
      "Ġw": 288,
      "ä»": 289,
      "Ġto": 290,
      "is": 291,
      "ou": 292,
      "Ġm": 293,
      "äº": 294,
      "Ġin": 295,
      "Ġf": 296,
      "Ġb": 297,
      "ed": 298,
      "ion": 299,
      "åı": 300,
      "ic": 301,
      "Ġd": 302,
      "Ġof": 303,
      "le": 304,
      "ar": 305,
      "ro": 306,
      "ĠĠ": 307,
      "åħ": 308,
      "ent": 309,
      "æľ": 310,
      "Ġe": 311,
      "åĴ": 312,
      "è¿": 313,
      "ä½": 314,
      "åĴĮ": 315,
      "æĪ": 316,
      "å®": 317,
      "åĪ": 318,
      "ve": 319,
      "us": 320,
      "Ġre": 321,
      "Ġh": 322,
      "Ġth": 323,
      "as": 324,
      "ct": 325,
      "çĶ": 326,
      "om": 327,
      "åľ": 328,
      "å¤": 329,
      "æĺ": 330,
      "åĬ": 331,
      "åĲ": 332,
      "ä¸Ģ": 333,
      "im": 334,
      "è¯": 335,
      "æĸ": 336,
      "ation": 337,
      "lo": 338,
      "ç»": 339,
      "Ġbe": 340,
      "ãĢģ": 341,
      "id": 342,
      "Ġcan": 343,
      "il": 344,
      "æĺ¯": 345,
      "ä¹": 346,
      "è®": 347,
      "ĠA": 348,
      "Ġthat": 349,
      "ĠT": 350,
      "ä»¥": 351,
      "ch": 352,
      "Ġy": 353,
      "ce": 354,
      "ot": 355,
      "ers": 356,
      "Ġn": 357,
      "éĢ": 358,
      "ra": 359,
      "å°": 360,
      "Ġg": 361,
      "Ġyou": 362,
      "åŃ": 363,
      "Ġpro": 364,
      "et": 365,
      "åº": 366,
      "åľ¨": 367,
      "ly": 368,
      "Ġis": 369,
      "ä¸ª": 370,
      "Ġl": 371,
      "ur": 372,
      "Ġfor": 373,
      "åı¯": 374,
      "éĩ": 375,
      "st": 376,
      "çļĦæ": 377,
      "ut": 378,
      "Ġhe": 379,
      "if": 380,
      "ĥ½": 381,
      "ä¼": 382,
      "ĠI": 383,
      "è¡": 384,
      "ir": 385,
      "ith": 386,
      "å¹": 387,
      "Ġare": 388,
      "ig": 389,
      "Ġst": 390,
      "el": 391,
      "ol": 392,
      "å¸": 393,
      "ul": 394,
      "æĿ": 395,
      "æĪĳ": 396,
      "Ġon": 397,
      "è¦": 398,
      "æľī": 399,
      "æĹ": 400,
      "å¯": 401,
      "è§": 402,
      "è¦ģ": 403,
      "Ġus": 404,
      "ay": 405,
      "æķ": 406,
      "çī": 407,
      "ow": 408,
      "ment": 409,
      "çĶ¨": 410,
      "ess": 411,
      "ä¸Ń": 412,
      "ä»¬": 413,
      "äºº": 414,
      "ĠĠĠĠ": 415,
      "Ġex": 416,
      "åĩ": 417,
      "åĽ": 418,
      "åĮ": 419,
      "å¼": 420,
      "Ġcon": 421,
      "se": 422,
      "èĥ½": 423,
      "çİ": 424,
      "Ġan": 425,
      "Ġwith": 426,
      "ä¸º": 427,
      "ate": 428,
      "iv": 429,
      "am": 430,
      "Ġas": 431,
      "ure": 432,
      "è¿Ļ": 433,
      "åĨ": 434,
      "çŃ": 435,
      "Ġor": 436,
      "å·": 437,
      "Ġal": 438,
      "ies": 439,
      "ç§": 440,
      "Ġim": 441,
      "æĢ": 442,
      "ver": 443,
      "ab": 444,
      "äºĨ": 445,
      "Ġsu": 446,
      "Ġde": 447,
      "ge": 448,
      "th": 449,
      "åı¯ä»¥": 450,
      "èĢ": 451,
      "ä¸į": 452,
      "å¾": 453,
      "ĠAI": 454,
      "Ġen": 455,
      "éĹ": 456,
      "æī": 457,
      "ak": 458,
      "ive": 459,
      "Ġmo": 460,
      "å¥": 461,
      "éĿ": 462,
      "çĽ": 463,
      "ity": 464,
      "ä¿": 465,
      "un": 466,
      "è´": 467,
      "åį": 468,
      "Ġit": 469,
      "Ġimp": 470,
      "ect": 471,
      "æł": 472,
      "å½": 473,
      "èĩ": 474,
      "é¢": 475,
      "åĵ": 476,
      "æ³": 477,
      "ort": 478,
      "ad": 479,
      "æŀ": 480,
      "em": 481,
      "Ġcom": 482,
      "å¦": 483,
      "her": 484,
      "ere": 485,
      "ĠS": 486,
      "ial": 487,
      "ĠC": 488,
      "ĠThe": 489,
      "çĲ": 490,
      "çĶŁ": 491,
      "æĦ": 492,
      "pp": 493,
      "æŃ": 494,
      "æĸ¹": 495,
      "qu": 496,
      "Ġwh": 497,
      "å¦Ĥ": 498,
      "éľ": 499,
      "ant": 500,
      "Ġle": 501,
      "Ġv": 502,
      "æĭ": 503,
      "æĬ": 504,
      "ust": 505,
      "æĹ¶": 506,
      "çŃī": 507,
      "åĳ": 508,
      "å¯¹": 509,
      "ter": 510,
      "ld": 511,
      "è¡Į": 512,
      "Ġch": 513,
      "ud": 514,
      "éľĢ": 515,
      "æ°": 516,
      "æĪĲ": 517,
      "Ġ|": 518,
      "ac": 519,
      "ain": 520,
      "iz": 521,
      "æı": 522,
      "ions": 523,
      "Ġha": 524,
      "æĽ": 525,
      "--": 526,
      "æĿ¥": 527,
      "ome": 528,
      "å¿": 529,
      "'s": 530,
      "Ġne": 531,
      "est": 532,
      "ä¾": 533,
      "um": 534,
      "åĪ°": 535,
      "åľ°": 536,
      "ist": 537,
      "çī©": 538,
      "ä¸Ģä¸ª": 539,
      "lp": 540,
      "æİ": 541,
      "èĩª": 542,
      "âĢ": 543,
      "Ġhelp": 544,
      "Ġtheir": 545,
      "æĶ": 546,
      "ä½ľ": 547,
      "ä¼ļ": 548,
      "æĮ": 549,
      "æĪĳä»¬": 550,
      "nt": 551,
      "äºİ": 552,
      "åĪĨ": 553,
      "res": 554,
      "pe": 555,
      "åĩº": 556,
      "ide": 557,
      "æĥ": 558,
      "ĠH": 559,
      "è¾": 560,
      "ĠM": 561,
      "ff": 562,
      "æ¯": 563,
      "od": 564,
      "ical": 565,
      "Ġwor": 566,
      "ä¸Ĭ": 567,
      "are": 568,
      "æĽ´": 569,
      "Ġyour": 570,
      "ä¸ĭ": 571,
      "èµ": 572,
      "ations": 573,
      "æķ°": 574,
      "Ġte": 575,
      "åİ": 576,
      "çĲĨ": 577,
      "ĠTh": 578,
      "è¿ĩ": 579,
      "å¹¶": 580,
      "du": 581,
      "éĿ¢": 582,
      "Ġad": 583,
      "ill": 584,
      "æµ": 585,
      "å¥½": 586,
      "oc": 587,
      "act": 588,
      "éľĢè¦ģ": 589,
      "ä»ĸ": 590,
      "å±": 591,
      "Ġr": 592,
      "Ġmore": 593,
      "åŃ¦": 594,
      "ç®": 595,
      "igh": 596,
      "äºĽ": 597,
      "ĠB": 598,
      "åĬ¨": 599,
      "åĵģ": 600,
      "èī": 601,
      "ple": 602,
      "Ġinc": 603,
      "åĲĮ": 604,
      "Ġexp": 605,
      "ould": 606,
      "ä½ł": 607,
      "æį": 608,
      "æıĲ": 609,
      "å¤§": 610,
      "çİ°": 611,
      "pt": 612,
      "ĠP": 613,
      "all": 614,
      "åĬł": 615,
      "ç§į": 616,
      "Ġse": 617,
      "åĬĽ": 618,
      "out": 619,
      "Ġhave": 620,
      "çº": 621,
      "ä½ĵ": 622,
      "Ġprov": 623,
      "åĮĸ": 624,
      "å¤ļ": 625,
      "å®ļ": 626,
      "Ġused": 627,
      "éĢļ": 628,
      "cc": 629,
      "è¿Ľ": 630,
      "æ´": 631,
      "Ġsh": 632,
      "Ġab": 633,
      "os": 634,
      "Ġres": 635,
      "ĠThis": 636,
      "ç¨": 637,
      "æĢ§": 638,
      "age": 639,
      "ri": 640,
      "æ¸": 641,
      "able": 642,
      "åŃĲ": 643,
      "Ġby": 644,
      "åıĳ": 645,
      "éĩı": 646,
      "åºĶ": 647,
      "Ġlo": 648,
      "ä½¿": 649,
      "åħ¶": 650,
      "é«": 651,
      "éĻ": 652,
      "é«ĺ": 653,
      "åº¦": 654,
      "è§£": 655,
      "é£": 656,
      "å°Ĩ": 657,
      "æ³ķ": 658,
      "ä¿Ŀ": 659,
      "and": 660,
      "ans": 661,
      "for": 662,
      "rom": 663,
      "reat": 664,
      "Ġpl": 665,
      "çļĦç": 666,
      "å¸¸": 667,
      "è½": 668,
      "Ġwe": 669,
      "è¡¨": 670,
      "ake": 671,
      "æĪĸ": 672,
      "é¢ĺ": 673,
      "åŁ": 674,
      "Ġme": 675,
      "æĸĩ": 676,
      "ther": 677,
      "ke": 678,
      "å®¶": 679,
      "åĲĪ": 680,
      "æľĢ": 681,
      "ine": 682,
      "Ġsome": 683,
      "ç±": 684,
      "éĩį": 685,
      "æŀľ": 686,
      "ĠW": 687,
      "ĠE": 688,
      "éĺ": 689,
      "our": 690,
      "rou": 691,
      "çĤ": 692,
      "æ±": 693,
      "åħ³": 694,
      "Ġint": 695,
      "ance": 696,
      "ä¹Ł": 697,
      "éģ": 698,
      "ĠĠĠ": 699,
      "å®ĥ": 700,
      "ag": 701,
      "æ¬": 702,
      "00": 703,
      "è°": 704,
      "ult": 705,
      "yst": 706,
      "éĹ´": 707,
      "ç³": 708,
      "Ġtr": 709,
      "pl": 710,
      "art": 711,
      "æĦŁ": 712,
      "æĤ": 713,
      "ata": 714,
      "ĠF": 715,
      "form": 716,
      "è®¡": 717,
      "Ġfrom": 718,
      "ĠD": 719,
      "éĹ®": 720,
      "ight": 721,
      "ces": 722,
      "æį®": 723,
      "lop": 724,
      "ä¹ĭ": 725,
      "Ġfe": 726,
      "åģ": 727,
      "velop": 728,
      "Ġ1": 729,
      "åĽł": 730,
      "ks": 731,
      "æ²": 732,
      "Ġu": 733,
      "å°ı": 734,
      "ystem": 735,
      "Ġdis": 736,
      "ĠR": 737,
      "gy": 738,
      "å·¥": 739,
      "ç¨ĭ": 740,
      "å¢": 741,
      "ence": 742,
      "èĤ": 743,
      "ç¡": 744,
      "Ġtra": 745,
      "å»": 746,
      "åħ¥": 747,
      "ign": 748,
      "alth": 749,
      "Ġsuch": 750,
      "ach": 751,
      "æĻ": 752,
      "arn": 753,
      "Ġdata": 754,
      "è¶": 755,
      "å®ŀ": 756,
      "so": 757,
      "Ġdevelop": 758,
      "ç¤": 759,
      "Ġacc": 760,
      "ast": 761,
      "èĢĮ": 762,
      "Ġ\"": 763,
      "Ġother": 764,
      "å»º": 765,
      "Ġeff": 766,
      "ç«": 767,
      "Ġman": 768,
      "åħ¬": 769,
      "åĢ": 770,
      "çĦ": 771,
      "ms": 772,
      "å¼ı": 773,
      "èī²": 774,
      "å¾Ĺ": 775,
      "ific": 776,
      "Ġj": 777,
      "Ġro": 778,
      "Ġhas": 779,
      "chn": 780,
      "olo": 781,
      "åĪ¶": 782,
      "èĬ": 783,
      "ä½¿çĶ¨": 784,
      "ous": 785,
      "ual": 786,
      "Ġat": 787,
      "Ġem": 788,
      "ell": 789,
      "Ġsystem": 790,
      "Ġhealth": 791,
      "ities": 792,
      "Ġexam": 793,
      "ib": 794,
      "éĶ": 795,
      "Ġabout": 796,
      "äº§": 797,
      "åĲİ": 798,
      "æĦı": 799,
      "ç±»": 800,
      "Ġpre": 801,
      "æĤ¨": 802,
      "Ġalso": 803,
      "ents": 804,
      "Ġind": 805,
      "ind": 806,
      "éĢĤ": 807,
      "Ġtechn": 808,
      "ress": 809,
      "æĥħ": 810,
      "éĹ®é¢ĺ": 811,
      "Ġuse": 812,
      "Ġincl": 813,
      "Ġspe": 814,
      "ich": 815,
      "ps": 816,
      "æľº": 817,
      "Ġthey": 818,
      "ie": 819,
      "Ġhow": 820,
      "Ġwork": 821,
      "ä¸ļ": 822,
      "ç´": 823,
      "Ġimpro": 824,
      "Ġlearn": 825,
      "æĸ°": 826,
      "çĤ¹": 827,
      "Ġcont": 828,
      "ard": 829,
      "çĦ¶": 830,
      "æľ¬": 831,
      "ç³»": 832,
      "ç¡®": 833,
      "è®¾": 834,
      "åħ·": 835,
      "éĢī": 836,
      "èĢħ": 837,
      "éħ": 838,
      "gh": 839,
      "__": 840,
      "Ġnot": 841,
      "çľ": 842,
      "çĽ¸": 843,
      "Ġprovide": 844,
      "åī": 845,
      "ional": 846,
      "Ġens": 847,
      "ä¸İ": 848,
      "è´¨": 849,
      "ential": 850,
      "ç»ı": 851,
      "å¿ĥ": 852,
      "ang": 853,
      "æŃ¤": 854,
      "end": 855,
      "Ġpo": 856,
      "è¿Ľè¡Į": 857,
      "ice": 858,
      "Ġ-": 859,
      "Ġway": 860,
      "å·±": 861,
      "Ġ2": 862,
      "ime": 863,
      "ç½": 864,
      "èĩªå·±": 865,
      "Ġun": 866,
      "bot": 867,
      "Ġinclud": 868,
      "ated": 869,
      "æ°´": 870,
      "éķ": 871,
      "æĮģ": 872,
      "ä»£": 873,
      "é¡": 874,
      "æīĢ": 875,
      "çĿ": 876,
      "pport": 877,
      "ood": 878,
      "ike": 879,
      "ru": 880,
      "Ġcomm": 881,
      "ĠL": 882,
      "ä¿¡": 883,
      "ĠG": 884,
      "çŁ": 885,
      "çĶµ": 886,
      "Ġwas": 887,
      "low": 888,
      "erv": 889,
      "åĮħ": 890,
      "ĠĠĠĠĠĠĠĠ": 891,
      "Ġwhe": 892,
      "dit": 893,
      "Ġwhich": 894,
      "Ġcomp": 895,
      "éª": 896,
      "ore": 897,
      "ç¾": 898,
      "Ġ=": 899,
      "çī¹": 900,
      "iff": 901,
      "ert": 902,
      "æģ": 903,
      "rit": 904,
      "Ġrec": 905,
      "åĨħ": 906,
      "æĺİ": 907,
      "ors": 908,
      "Ġpat": 909,
      "----": 910,
      "æŁ": 911,
      "Ġapp": 912,
      "ns": 913,
      "åĬ¡": 914,
      "aly": 915,
      "ace": 916,
      "æ´»": 917,
      "ä¾Ľ": 918,
      "av": 919,
      "ä¸»": 920,
      "Ġpers": 921,
      "çĥ": 922,
      "è¯¥": 923,
      "Ġmy": 924,
      "ç©": 925,
      "eri": 926,
      "è®©": 927,
      "æĬĢ": 928,
      "éķ¿": 929,
      "ack": 930,
      "ĠN": 931,
      "Ġdiff": 932,
      "Ġthis": 933,
      "åĿ": 934,
      "Ġensure": 935,
      "å½ĵ": 936,
      "Ġout": 937,
      "Ġcl": 938,
      "Ġk": 939,
      "é¦": 940,
      "ount": 941,
      "çİ¯": 942,
      "åĬ©": 943,
      "Ġtechnolo": 944,
      "Ġthese": 945,
      "ful": 946,
      "Ġ(": 947,
      "éļ": 948,
      "æ·": 949,
      "ä¸ĢäºĽ": 950,
      "Ġsoc": 951,
      "å¼Ģ": 952,
      "å¤©": 953,
      "Ġev": 954,
      "Ġredu": 955,
      "Ġthem": 956,
      "éĥ½": 957,
      "æĪ·": 958,
      "è·": 959,
      "åľº": 960,
      "æ°Ķ": 961,
      "ĠY": 962,
      "è¯Ń": 963,
      "éĢļè¿ĩ": 964,
      "å±ķ": 965,
      "Ġco": 966,
      "å½±": 967,
      "ç¬": 968,
      "Ġanaly": 969,
      "æ¯Ķ": 970,
      "åħ¨": 971,
      "Ġimprove": 972,
      "ç»ĵ": 973,
      "å¹´": 974,
      "çķ": 975,
      "çĿĢ": 976,
      "Ġhum": 977,
      "Ġqu": 978,
      "ç®Ĺ": 979,
      "ĠO": 980,
      "é£Ł": 981,
      "ility": 982,
      "Ġsystems": 983,
      "åıĺ": 984,
      "ail": 985,
      "ç¼": 986,
      "çł": 987,
      "è¿Ļä¸ª": 988,
      "æıĲä¾Ľ": 989,
      "ase": 990,
      "åŀ": 991,
      "ments": 992,
      "Ġpot": 993,
      "Ġany": 994,
      "ä½Ĩ": 995,
      "Ġcons": 996,
      "ĠIt": 997,
      "æł¼": 998,
      "Ġar": 999,
      "æľ¯": 1000,
      "éĿŀ": 1001,
      "Ġdo": 1002,
      "Ġmay": 1003,
      "æĭ©": 1004,
      "ue": 1005,
      "éĢīæĭ©": 1006,
      "ry": 1007,
      "éĥ": 1008,
      "Ġlike": 1009,
      "ong": 1010,
      "èģ": 1011,
      "``": 1012,
      "ile": 1013,
      "æ±Ĥ": 1014,
      "Ġnew": 1015,
      "ient": 1016,
      "Ġimpact": 1017,
      "è¿ĺ": 1018,
      "æ³¨": 1019,
      "ä¹Ī": 1020,
      "çĽ®": 1021,
      "âĢľ": 1022,
      "âĢĿ": 1023,
      "ef": 1024,
      "ä¾ĭ": 1025,
      "Ġpotential": 1026,
      "ok": 1027,
      "åı¯èĥ½": 1028,
      "Ġtrans": 1029,
      "Ġact": 1030,
      "Ġspec": 1031,
      "Ġwill": 1032,
      "æ¶": 1033,
      "äº¤": 1034,
      "ize": 1035,
      "ç¾İ": 1036,
      "å¸Ĥ": 1037,
      "Ġstud": 1038,
      "pon": 1039,
      "èº": 1040,
      "ä¸įåĲĮ": 1041,
      "one": 1042,
      "å¾Ī": 1043,
      "åıĬ": 1044,
      "å¦Ĥæŀľ": 1045,
      "çĲĥ": 1046,
      "ange": 1047,
      "Ġneed": 1048,
      "å¤ĸ": 1049,
      "ety": 1050,
      "aking": 1051,
      "è¯·": 1052,
      "ater": 1053,
      "Ġperson": 1054,
      "ident": 1055,
      "Ġso": 1056,
      "Ġmake": 1057,
      "å¹³": 1058,
      "å¤Ł": 1059,
      "èº«": 1060,
      "Ġinform": 1061,
      "æ¡": 1062,
      "äºĭ": 1063,
      "åıĹ": 1064,
      "ased": 1065,
      "ild": 1066,
      "Ġoff": 1067,
      "Ġthere": 1068,
      "cis": 1069,
      "è¢": 1070,
      "éĥ¨": 1071,
      "æ¯ı": 1072,
      "ract": 1073,
      "ass": 1074,
      "Ġlearning": 1075,
      "åĸ": 1076,
      "å½¢": 1077,
      "ire": 1078,
      "ä»İ": 1079,
      "bots": 1080,
      "èĻ": 1081,
      "å¸®": 1082,
      "Ġdes": 1083,
      "ĠIn": 1084,
      "cess": 1085,
      "Ġpe": 1086,
      "Ġwho": 1087,
      "ify": 1088,
      "ä¹ł": 1089,
      "æľŁ": 1090,
      "Ġexperi": 1091,
      "éĤ": 1092,
      "Ġsc": 1093,
      "ep": 1094,
      "ä½ķ": 1095,
      "Ġtime": 1096,
      "éĿŀå¸¸": 1097,
      "æĭ¬": 1098,
      "åķ": 1099,
      "ä»¥ä¸ĭ": 1100,
      "éģĵ": 1101,
      "Ġcommun": 1102,
      "Ġcould": 1103,
      "ap": 1104,
      "èĲ": 1105,
      "è°ĥ": 1106,
      "lic": 1107,
      "duct": 1108,
      "Ġits": 1109,
      "cy": 1110,
      "è¯´": 1111,
      "Ġmed": 1112,
      "Ġcol": 1113,
      "ular": 1114,
      "éĩįè¦ģ": 1115,
      "Ġsp": 1116,
      "åĪ©": 1117,
      "èµ·": 1118,
      "Ġprovid": 1119,
      "ices": 1120,
      "åĻ": 1121,
      "æĸĻ": 1122,
      "Ġimport": 1123,
      "ural": 1124,
      "åŃĹ": 1125,
      "Ġund": 1126,
      "int": 1127,
      "Ġover": 1128,
      "åı¸": 1129,
      "æł¹": 1130,
      "é¥": 1131,
      "ples": 1132,
      "ä»ĸä»¬": 1133,
      "gra": 1134,
      "uring": 1135,
      "now": 1136,
      "åįķ": 1137,
      "è¿ĻäºĽ": 1138,
      "åīį": 1139,
      "å®ī": 1140,
      "Ġpr": 1141,
      "åĮħæĭ¬": 1142,
      "ç»Ļ": 1143,
      "The": 1144,
      "ä½į": 1145,
      "å§": 1146,
      "ç´ł": 1147,
      "åĳĺ": 1148,
      "Ġident": 1149,
      "åŀĭ": 1150,
      "Ġadd": 1151,
      "å¼º": 1152,
      "æĺ¯ä¸Ģ": 1153,
      "ip": 1154,
      "gor": 1155,
      "Ġsupport": 1156,
      "ne": 1157,
      "Ġdiffere": 1158,
      "åħĥ": 1159,
      "Ġass": 1160,
      "åĨ³": 1161,
      "éĽ": 1162,
      "åĲį": 1163,
      "Ġgo": 1164,
      "Ġtechnology": 1165,
      "æĢ»": 1166,
      "è®®": 1167,
      "Ġinter": 1168,
      "Ġinv": 1169,
      "Ġour": 1170,
      "æķĪ": 1171,
      "ustom": 1172,
      "Ġrel": 1173,
      "ife": 1174,
      "åĻ¨": 1175,
      "ings": 1176,
      "ä»·": 1177,
      "Ġpart": 1178,
      "è¢«": 1179,
      "æīĭ": 1180,
      "ary": 1181,
      "Ġrespon": 1182,
      "ĊĠĠĠ": 1183,
      "å¥½çļĦ": 1184,
      "ative": 1185,
      "å¸®åĬ©": 1186,
      "ç»Ł": 1187,
      "æĶ¾": 1188,
      "ĠHere": 1189,
      "çģ": 1190,
      "Ġbut": 1191,
      "æģ¯": 1192,
      "æŃ£": 1193,
      "ark": 1194,
      "åħ¬åı¸": 1195,
      "ory": 1196,
      "å¢ĥ": 1197,
      "lect": 1198,
      "éŁ": 1199,
      "æĥ³": 1200,
      "é£İ": 1201,
      "ating": 1202,
      "Ġam": 1203,
      "its": 1204,
      "æ»": 1205,
      "gorith": 1206,
      "åĵį": 1207,
      "ures": 1208,
      "Ġeffect": 1209,
      "Ġshould": 1210,
      "Ġper": 1211,
      "è±": 1212,
      "ç²": 1213,
      "ict": 1214,
      "Ġalgorith": 1215,
      "uc": 1216,
      "rough": 1217,
      "ä»»": 1218,
      "ä»¶": 1219,
      "Ġbet": 1220,
      "ia": 1221,
      "Ġanalyz": 1222,
      "æł¹æį®": 1223,
      "ized": 1224,
      "æµģ": 1225,
      "è§Ĥ": 1226,
      "è£": 1227,
      "æłĩ": 1228,
      "iron": 1229,
      "Ġcustom": 1230,
      "Ġreg": 1231,
      "Ġpersonal": 1232,
      "èĥ½å¤Ł": 1233,
      "ics": 1234,
      "ivid": 1235,
      "çĪ": 1236,
      "èµĦ": 1237,
      "æŃ¥": 1238,
      "å®¹": 1239,
      "åĪĽ": 1240,
      "èĪ": 1241,
      "ä¹Ĳ": 1242,
      "å¯¼": 1243,
      "gan": 1244,
      "èĬĤ": 1245,
      "Ġall": 1246,
      "ens": 1247,
      "ame": 1248,
      "ness": 1249,
      "Ġup": 1250,
      "ĠU": 1251,
      "èĢĥ": 1252,
      "elf": 1253,
      "åĢ¼": 1254,
      "å°ĳ": 1255,
      "æľį": 1256,
      "ari": 1257,
      "thical": 1258,
      "viron": 1259,
      "èĥ": 1260,
      "ord": 1261,
      "Ġsign": 1262,
      "éĩĮ": 1263,
      "ound": 1264,
      "ople": 1265,
      "åŁº": 1266,
      "Ġinformation": 1267,
      "Ġidentify": 1268,
      "åĽŀ": 1269,
      "Ġcre": 1270,
      "éŁ³": 1271,
      "ible": 1272,
      "ub": 1273,
      "è¿Ĳ": 1274,
      "Ġlead": 1275,
      "æ¸¸": 1276,
      "æ¬¡": 1277,
      "åĨĻ": 1278,
      "éĤ£": 1279,
      "get": 1280,
      "èį": 1281,
      "Ġexample": 1282,
      "ä¼ĺ": 1283,
      "å½±åĵį": 1284,
      "ish": 1285,
      "xt": 1286,
      "æº": 1287,
      "éªĮ": 1288,
      "ob": 1289,
      "å®¢": 1290,
      "å¤ĩ": 1291,
      "åģ¥": 1292,
      "è½¦": 1293,
      "ç¤¾": 1294,
      "ividual": 1295,
      "ered": 1296,
      "les": 1297,
      "Ġenviron": 1298,
      "Ġpeople": 1299,
      "æĺŁ": 1300,
      "çĸ": 1301,
      "çĭ": 1302,
      "Ġdet": 1303,
      "æĹł": 1304,
      "Ġif": 1305,
      "ose": 1306,
      "ite": 1307,
      "å¢ŀ": 1308,
      "éĴ": 1309,
      "åĲĮæĹ¶": 1310,
      "è¿°": 1311,
      "æĸ¹å¼ı": 1312,
      "åĽ½": 1313,
      "é»": 1314,
      "å¤Ħ": 1315,
      "Ġexamples": 1316,
      "æ®": 1317,
      "Ġinto": 1318,
      "æĮĩ": 1319,
      "Ġhuman": 1320,
      "åĲĳ": 1321,
      "ç¤º": 1322,
      "æķ°æį®": 1323,
      "Ġ3": 1324,
      "ĠJ": 1325,
      "èı": 1326,
      "çİ¯å¢ĥ": 1327,
      "als": 1328,
      "erst": 1329,
      "Ġethical": 1330,
      "ç»Ħ": 1331,
      "ä¼ł": 1332,
      "Ġdifferent": 1333,
      "Ġknow": 1334,
      "åºı": 1335,
      "Ġindividual": 1336,
      "æıĲé«ĺ": 1337,
      "round": 1338,
      "å°±": 1339,
      "åıĸ": 1340,
      "åŃĺ": 1341,
      "ä¸¤": 1342,
      "çŁ¥": 1343,
      "ources": 1344,
      "ck": 1345,
      "å£": 1346,
      "ines": 1347,
      "è¾¾": 1348,
      "Ġmany": 1349,
      "æķ´": 1350,
      "æł·": 1351,
      "ditional": 1352,
      "omm": 1353,
      "çĶ±": 1354,
      "éĢł": 1355,
      "å®ĥä»¬": 1356,
      "ues": 1357,
      "Ġment": 1358,
      "Ġimportant": 1359,
      "Ġopt": 1360,
      "Ġloc": 1361,
      "ph": 1362,
      "Ġprocess": 1363,
      "Ġalgorithms": 1364,
      "è®¾è®¡": 1365,
      "Ġsocial": 1366,
      "very": 1367,
      "åĪĻ": 1368,
      "ä¾ĭå¦Ĥ": 1369,
      "è®¤": 1370,
      "Ġaut": 1371,
      "Ġserv": 1372,
      "gg": 1373,
      "äº§åĵģ": 1374,
      "è§Ħ": 1375,
      "çľĭ": 1376,
      "vel": 1377,
      "æĸ¹æ³ķ": 1378,
      "Ġben": 1379,
      "åĽłæŃ¤": 1380,
      "care": 1381,
      "per": 1382,
      "åĬŁ": 1383,
      "å»ºè®®": 1384,
      "Ġpos": 1385,
      "æ¤": 1386,
      "åĮº": 1387,
      "we": 1388,
      "iqu": 1389,
      "Ġreal": 1390,
      "æĹ¥": 1391,
      "Ġreduce": 1392,
      "af": 1393,
      "angu": 1394,
      "Ġsk": 1395,
      "Ġed": 1396,
      "erstand": 1397,
      "åĨµ": 1398,
      "mot": 1399,
      "åħĪ": 1400,
      "ç¥": 1401,
      "åºĶè¯¥": 1402,
      "Ġthrough": 1403,
      "Ġconc": 1404,
      "åıĳå±ķ": 1405,
      "è¯ķ": 1406,
      "æ¡Ī": 1407,
      "Ġenvironment": 1408,
      "åı£": 1409,
      "Ġadv": 1410,
      "åĪ«": 1411,
      "Ġbenef": 1412,
      "æ¸ħ": 1413,
      "åĳ³": 1414,
      "åħī": 1415,
      "Ġdevelopment": 1416,
      "eng": 1417,
      "å¦Ĥä½ķ": 1418,
      "ç®¡": 1419,
      "ivers": 1420,
      "åĲĦ": 1421,
      "Ġris": 1422,
      "row": 1423,
      "ergy": 1424,
      "è®¡ç®Ĺ": 1425,
      "ä¿¡æģ¯": 1426,
      "Ġproduct": 1427,
      "è¾ĥ": 1428,
      "è®º": 1429,
      "èĩªå·±çļĦ": 1430,
      "æĬ¤": 1431,
      "åıį": 1432,
      "åħ¶ä»ĸ": 1433,
      "åĪĹ": 1434,
      "ç»Ĩ": 1435,
      "ç©º": 1436,
      "Ġgreat": 1437,
      "ear": 1438,
      "æºĲ": 1439,
      "ject": 1440,
      "çĶŁæ´»": 1441,
      "ä¸ŃçļĦ": 1442,
      "Ġunderstand": 1443,
      "èĭ": 1444,
      "hat": 1445,
      "Ġprogra": 1446,
      "çĬ": 1447,
      "éĩĳ": 1448,
      "ĠĠĠĠĠĠĠ": 1449,
      "Ġincluding": 1450,
      "Ġaccess": 1451,
      "è¯Ĩ": 1452,
      "ç¦": 1453,
      "og": 1454,
      "è£ħ": 1455,
      "Ġart": 1456,
      "Ġwrit": 1457,
      "Ġincre": 1458,
      "Ġph": 1459,
      "æĸ¹éĿ¢": 1460,
      "Ġpract": 1461,
      "Ġusing": 1462,
      "é¡¹": 1463,
      "æİ¥": 1464,
      "Ġways": 1465,
      "Ġlangu": 1466,
      "æĶ¯": 1467,
      "Ġchall": 1468,
      "åİ»": 1469,
      "____": 1470,
      "imate": 1471,
      "æĸŃ": 1472,
      "è¨": 1473,
      "Ġwell": 1474,
      "ll": 1475,
      "Ġpol": 1476,
      "æĢģ": 1477,
      "Ġra": 1478,
      "Can": 1479,
      "åİŁ": 1480,
      "ber": 1481,
      "è¨Ģ": 1482,
      "ç«ĭ": 1483,
      "Ġgen": 1484,
      "éħį": 1485,
      "æ·±": 1486,
      "te": 1487,
      "ä¸ī": 1488,
      "ç§ĳ": 1489,
      "ĠFor": 1490,
      "çº¿": 1491,
      "çħ": 1492,
      "æ¼": 1493,
      "åķĨ": 1494,
      "æĿĲ": 1495,
      "Ġsignific": 1496,
      "Ġgu": 1497,
      "Ġdecis": 1498,
      "Ġag": 1499,
      "Ġtrain": 1500,
      "Ġcreat": 1501,
      "å®Į": 1502,
      "æĹ¶éĹ´": 1503,
      "Ġone": 1504,
      "èĦ": 1505,
      "Ġnat": 1506,
      "åŃ¦ä¹ł": 1507,
      "çļĦæķ": 1508,
      "ced": 1509,
      "Ġwhen": 1510,
      "Ġbi": 1511,
      "èİ": 1512,
      "æĽ´åĬł": 1513,
      "ives": 1514,
      "port": 1515,
      "å·¥ä½ľ": 1516,
      "ving": 1517,
      "Ġbeen": 1518,
      "æĻº": 1519,
      "Ġlife": 1520,
      "å¼ķ": 1521,
      "arm": 1522,
      "çİĩ": 1523,
      "çĶ¨æĪ·": 1524,
      "ä¹ī": 1525,
      "ä»½": 1526,
      "è¯Ŀ": 1527,
      "iness": 1528,
      "com": 1529,
      "åº·": 1530,
      "åĩı": 1531,
      "ä»Ģ": 1532,
      "è¾ĵ": 1533,
      "Ġvari": 1534,
      "con": 1535,
      "Ġmod": 1536,
      "ä»Ģä¹Ī": 1537,
      "Ġenergy": 1538,
      "æĬĢæľ¯": 1539,
      "ertain": 1540,
      "mm": 1541,
      "verall": 1542,
      "åĪĴ": 1543,
      "Ġorgan": 1544,
      "Ġrobots": 1545,
      "æİ¨": 1546,
      "ants": 1547,
      "åĩĨ": 1548,
      "ds": 1549,
      "æŀģ": 1550,
      "çĻ": 1551,
      "Ġrequ": 1552,
      "Ġess": 1553,
      "ç®Ģ": 1554,
      "ustain": 1555,
      "æ¨": 1556,
      "Ġstr": 1557,
      "cing": 1558,
      "ability": 1559,
      "ree": 1560,
      "Ġeduc": 1561,
      "åİĨ": 1562,
      "Ġcreate": 1563,
      "åģ¥åº·": 1564,
      "Ġdesign": 1565,
      "ips": 1566,
      "åģļ": 1567,
      "èĬ±": 1568,
      "ink": 1569,
      "èıľ": 1570,
      "æī¾": 1571,
      "æ®µ": 1572,
      "æµĭ": 1573,
      "ĠV": 1574,
      "ĠBy": 1575,
      "åĶ": 1576,
      "é¦ĸ": 1577,
      "è¯į": 1578,
      "Ġwhere": 1579,
      "Ġdisc": 1580,
      "äºĨè§£": 1581,
      "ric": 1582,
      "ä¸Ķ": 1583,
      "è¶³": 1584,
      "æĺ¯ä¸Ģä¸ª": 1585,
      "arch": 1586,
      "ç§¯": 1587,
      "å¸¦": 1588,
      "Ġwhile": 1589,
      "Ġsignificant": 1590,
      "çłģ": 1591,
      "æĪ¿": 1592,
      "Ġbeing": 1593,
      "Ġlanguage": 1594,
      "itive": 1595,
      "20": 1596,
      "Ġanalyze": 1597,
      "æĻ¯": 1598,
      "èĮ": 1599,
      "rib": 1600,
      "æ¨¡": 1601,
      "ĠSt": 1602,
      "è´¹": 1603,
      "'t": 1604,
      "Ġ5": 1605,
      "Ġhealthcare": 1606,
      "Ġexperience": 1607,
      "ä¸ªäºº": 1608,
      "ays": 1609,
      "è±¡": 1610,
      "plo": 1611,
      "Ġwould": 1612,
      "èĻĳ": 1613,
      "æĶ¶": 1614,
      "é¢Ħ": 1615,
      "é¢Ĩ": 1616,
      "ä¿ĿæĮģ": 1617,
      "ences": 1618,
      "åıª": 1619,
      "èĩ´": 1620,
      "æĪı": 1621,
      "Ġmental": 1622,
      "Ġfew": 1623,
      "ates": 1624,
      "è¿ĩç¨ĭ": 1625,
      "å®īåħ¨": 1626,
      "Ġsustain": 1627,
      "Ġwere": 1628,
      "å¤ª": 1629,
      "çĮ": 1630,
      "Ġspecific": 1631,
      "Ġworld": 1632,
      "çŃĶ": 1633,
      "```": 1634,
      "Ġtake": 1635,
      "åħ»": 1636,
      "éĢŁ": 1637,
      "ever": 1638,
      "SS": 1639,
      "éĶĢ": 1640,
      "Ġbo": 1641,
      "hes": 1642,
      "Ġmus": 1643,
      "æľįåĬ¡": 1644,
      "è§Ĵ": 1645,
      "ten": 1646,
      "æŀĲ": 1647,
      "pow": 1648,
      "dict": 1649,
      "vent": 1650,
      "10": 1651,
      "çļĦæĹ": 1652,
      "ĸçķ": 1653,
      "Ġprot": 1654,
      "ç½®": 1655,
      "Ġhigh": 1656,
      "Ġbus": 1657,
      "Ġindust": 1658,
      "åĲ¦": 1659,
      "cial": 1660,
      "äººä»¬": 1661,
      "ĠAs": 1662,
      "åĳĬ": 1663,
      "ade": 1664,
      "æĶ¹": 1665,
      "çĹ": 1666,
      "Ġhad": 1667,
      "Ġher": 1668,
      "Ġjust": 1669,
      "è´Ń": 1670,
      "ç¬¬": 1671,
      "éĵ": 1672,
      "Ġwater": 1673,
      "Ġfood": 1674,
      "éĺŁ": 1675,
      "aus": 1676,
      "Ġchalleng": 1677,
      "åħį": 1678,
      "æĸĩåĮĸ": 1679,
      "Ġmost": 1680,
      "é¸": 1681,
      "ç½ĳ": 1682,
      "çĽ´": 1683,
      "Ġsm": 1684,
      "Ġactiv": 1685,
      "ploy": 1686,
      "Overall": 1687,
      "å¿«": 1688,
      "ruct": 1689,
      "Ġindividuals": 1690,
      "å§ĭ": 1691,
      "gies": 1692,
      "æŁ¥": 1693,
      "çĪ±": 1694,
      "iety": 1695,
      "In": 1696,
      "åĪĨæŀĲ": 1697,
      "è§Ĩ": 1698,
      "æ¸©": 1699,
      "ç»´": 1700,
      "olut": 1701,
      "åŁŁ": 1702,
      "ommend": 1703,
      "Ġcomple": 1704,
      "æķĻ": 1705,
      "Ġbu": 1706,
      "Ġeducation": 1707,
      "Ġ4": 1708,
      "ather": 1709,
      "ting": 1710,
      "Ġfind": 1711,
      "æ²¡": 1712,
      "Ġhis": 1713,
      "ä¹ĭéĹ´": 1714,
      "Ġeffective": 1715,
      "Ġatt": 1716,
      "Ġrese": 1717,
      "èĥ½åĬĽ": 1718,
      "åŁİ": 1719,
      "Ġallow": 1720,
      "Ġav": 1721,
      "Ġpromot": 1722,
      "æĻºèĥ½": 1723,
      "æ»¡": 1724,
      "åħ±": 1725,
      "iew": 1726,
      "come": 1727,
      "ç³»ç»Ł": 1728,
      "Ġrespons": 1729,
      "äºĴ": 1730,
      "Ġcult": 1731,
      "powered": 1732,
      "Ġrecommend": 1733,
      "èĲ¥": 1734,
      "OSS": 1735,
      "Ġchange": 1736,
      "è¯ģ": 1737,
      "ved": 1738,
      "æİĴ": 1739,
      "è§£åĨ³": 1740,
      "ici": 1741,
      "ĠHow": 1742,
      "Ġfeel": 1743,
      "æľĪ": 1744,
      "Ġwhat": 1745,
      "ä»¥åıĬ": 1746,
      "Ġsee": 1747,
      "åŃ©": 1748,
      "bs": 1749,
      "Ġsur": 1750,
      "æ£": 1751,
      "ality": 1752,
      "Ġvis": 1753,
      "ç¡®ä¿Ŀ": 1754,
      "pect": 1755,
      "å®ŀçİ°": 1756,
      "Ġcare": 1757,
      "å¹¿": 1758,
      "ills": 1759,
      "åºŃ": 1760,
      "ases": 1761,
      "å¤į": 1762,
      "åºĶçĶ¨": 1763,
      "çļĦæĥ": 1764,
      "ards": 1765,
      "Ġaddress": 1766,
      "Ġcompan": 1767,
      "Ġinvol": 1768,
      "Ġcustomer": 1769,
      "åĽłä¸º": 1770,
      "Ġstudents": 1771,
      "Ġins": 1772,
      "æ³¨æĦı": 1773,
      "æŀĦ": 1774,
      "æ¬¢": 1775,
      "æµ·": 1776,
      "åıĤ": 1777,
      "èĩªçĦ¶": 1778,
      "é©": 1779,
      "ĠThese": 1780,
      "wn": 1781,
      "æĺĵ": 1782,
      "çĬ¶": 1783,
      "ren": 1784,
      "Ġtreat": 1785,
      "Ġbenefits": 1786,
      "ĊĠĠĠĠĠĠĠ": 1787,
      "å¯¹äºİ": 1788,
      "æĢĿ": 1789,
      "ider": 1790,
      "ĠYes": 1791,
      "ĠK": 1792,
      "åĸľ": 1793,
      "Ġke": 1794,
      "Ġeng": 1795,
      "Ġpop": 1796,
      "ost": 1797,
      "pare": 1798,
      "Ġmon": 1799,
      "æ¬¾": 1800,
      "ĠMOSS": 1801,
      "Ġemot": 1802,
      "Ġac": 1803,
      "ç¼ĸ": 1804,
      "fore": 1805,
      "åı¥": 1806,
      "Ġval": 1807,
      "ily": 1808,
      "Ġiss": 1809,
      "èĤī": 1810,
      "èĩ³": 1811,
      "æ¸¸æĪı": 1812,
      "ween": 1813,
      "Ġinclude": 1814,
      "Ġprotect": 1815,
      "åħ³ç³»": 1816,
      "éĻ©": 1817,
      "Ġsever": 1818,
      "Ġthan": 1819,
      "éľĢæ±Ĥ": 1820,
      "ç»ĥ": 1821,
      "ĠThey": 1822,
      "iss": 1823,
      "ys": 1824,
      "Ġjob": 1825,
      "éĺ³": 1826,
      "æĲ": 1827,
      "Ġbetween": 1828,
      "Ġmach": 1829,
      "--------": 1830,
      "èĢĥèĻĳ": 1831,
      "è´¨éĩı": 1832,
      "Ġbusiness": 1833,
      "wor": 1834,
      "ick": 1835,
      "eg": 1836,
      "åħħ": 1837,
      "ç¯": 1838,
      "æĿ¡": 1839,
      "ner": 1840,
      "apt": 1841,
      "Ġappro": 1842,
      "Ġplay": 1843,
      "æ²¡æľī": 1844,
      "¤Ĳ": 1845,
      "æľª": 1846,
      "æĪĺ": 1847,
      "å®¶åºŃ": 1848,
      "ãĢĭ": 1849,
      "ĠCh": 1850,
      "ency": 1851,
      "ãĢĬ": 1852,
      "Ġproviding": 1853,
      "Ġresources": 1854,
      "âĢĻ": 1855,
      "Ġassist": 1856,
      "Ġnatural": 1857,
      "è¯Ħ": 1858,
      "ä¾¿": 1859,
      "Ġsaf": 1860,
      "åħ·æľī": 1861,
      "è°¢": 1862,
      "çĥŃ": 1863,
      "ss": 1864,
      "eth": 1865,
      "old": 1866,
      "Ġperform": 1867,
      "Ġseveral": 1868,
      "é¤Ĳ": 1869,
      "Ġeach": 1870,
      "è½¬": 1871,
      "ci": 1872,
      "Ġty": 1873,
      "Ġpub": 1874,
      "æ´»åĬ¨": 1875,
      "ocus": 1876,
      "çīĮ": 1877,
      "è¶Ĭ": 1878,
      "åĽ¢": 1879,
      "è½»": 1880,
      "è¯Ńè¨Ģ": 1881,
      "Ġareas": 1882,
      "éĩĩ": 1883,
      "ft": 1884,
      "riend": 1885,
      "å·²": 1886,
      "å¸Ĥåľº": 1887,
      "ition": 1888,
      "ients": 1889,
      "ç®¡çĲĨ": 1890,
      "è®¸": 1891,
      "äººç±»": 1892,
      "èº«ä½ĵ": 1893,
      "ique": 1894,
      "Ġpartic": 1895,
      "ç»Ń": 1896,
      "agement": 1897,
      "ves": 1898,
      "ç¬¦": 1899,
      "line": 1900,
      "çº¢": 1901,
      "åĲ¸": 1902,
      "Ġpatter": 1903,
      "000": 1904,
      "ç¤¾ä¼ļ": 1905,
      "åĨħå®¹": 1906,
      "Ġorganiz": 1907,
      "ough": 1908,
      "Ġve": 1909,
      "åŃ©åŃĲ": 1910,
      "æĸ½": 1911,
      "æ¤į": 1912,
      "åĩł": 1913,
      "ä½Ĩæĺ¯": 1914,
      "Ġaff": 1915,
      "Ġnum": 1916,
      "lement": 1917,
      "èīº": 1918,
      "èĳ": 1919,
      "Ġcar": 1920,
      "ages": 1921,
      "abor": 1922,
      "æĺ¯ä¸Ģç§į": 1923,
      "Ġinst": 1924,
      "èĽ": 1925,
      "ä¹ĭä¸Ģ": 1926,
      "è·¯": 1927,
      "åį³": 1928,
      "Ġmain": 1929,
      "éļı": 1930,
      "How": 1931,
      "å¿ħ": 1932,
      "ç¨ĭåºı": 1933,
      "éŁ³ä¹Ĳ": 1934,
      "red": 1935,
      "æ²¹": 1936,
      "Ġoffer": 1937,
      "ets": 1938,
      "ç¢": 1939,
      "Ġduring": 1940,
      "çļĦäºº": 1941,
      "æĽ´å¤ļ": 1942,
      "Ġdi": 1943,
      "ä»£çłģ": 1944,
      "èİ·": 1945,
      "åħĭ": 1946,
      "Ġguid": 1947,
      "ä¸»è¦ģ": 1948,
      "Ġfam": 1949,
      "æİ§": 1950,
      "éĢļå¸¸": 1951,
      "ĠAd": 1952,
      "å¤ĦçĲĨ": 1953,
      "urn": 1954,
      "ower": 1955,
      "åĳ½": 1956,
      "æıı": 1957,
      "Ġskills": 1958,
      "Ġtool": 1959,
      "ware": 1960,
      "æĸĩæľ¬": 1961,
      "Ġpatterns": 1962,
      "çĽ®æłĩ": 1963,
      "acy": 1964,
      "æīĵ": 1965,
      "Ġevery": 1966,
      "åŁİå¸Ĥ": 1967,
      "ries": 1968,
      "è¯»": 1969,
      "éģ¿": 1970,
      "çĻ½": 1971,
      "éĢĤåĲĪ": 1972,
      "Ġpatient": 1973,
      "çľŁ": 1974,
      "oth": 1975,
      "å¥¹": 1976,
      "åĶ®": 1977,
      "ä¸Ģç§į": 1978,
      "Ġmade": 1979,
      "ä½İ": 1980,
      "ise": 1981,
      "Ġrem": 1982,
      "æ¶Ī": 1983,
      "åĲ«": 1984,
      "air": 1985,
      "Ġgener": 1986,
      "oy": 1987,
      "ç²¾": 1988,
      "æĥħåĨµ": 1989,
      "ights": 1990,
      "Ġexpl": 1991,
      "è§ģ": 1992,
      "Ġpredict": 1993,
      "ç±³": 1994,
      "æĽ´å¥½": 1995,
      "ä¿®": 1996,
      "Ġclimate": 1997,
      "Ġfocus": 1998,
      "Ġgrow": 1999,
      "å®¢æĪ·": 2000,
      "ä¸įæĸŃ": 2001,
      "itor": 2002,
      "ĠEn": 2003,
      "çº¦": 2004,
      "æĺ¯åĲ¦": 2005,
      "ä»ħ": 2006,
      "æĪĳä»¬çļĦ": 2007,
      "æľĽ": 2008,
      "op": 2009,
      "Ġmaking": 2010,
      "yth": 2011,
      "ccess": 2012,
      "Ġown": 2013,
      "ggest": 2014,
      "Ġtas": 2015,
      "uture": 2016,
      "Ġmodel": 2017,
      "put": 2018,
      "Ġresearch": 2019,
      "erest": 2020,
      "éļ¾": 2021,
      "Ġ[": 2022,
      "iel": 2023,
      "ational": 2024,
      "Ġcommunic": 2025,
      "ç¥ŀ": 2026,
      "ç©¶": 2027,
      "Ġrest": 2028,
      "æĪĲä¸º": 2029,
      "king": 2030,
      "pr": 2031,
      "åĮ»": 2032,
      "cur": 2033,
      "èĤ²": 2034,
      "Ġ'": 2035,
      "è¿Ļç§į": 2036,
      "ç¯ĩ": 2037,
      "Ġche": 2038,
      "own": 2039,
      "éĻħ": 2040,
      "Ġfin": 2041,
      "åĪ¶ä½ľ": 2042,
      "Ġsuggest": 2043,
      "å¢ŀåĬł": 2044,
      "Ġmedia": 2045,
      "ribut": 2046,
      "çļĦæĥħ": 2047,
      "åĬłåħ¥": 2048,
      "Ġcle": 2049,
      "åĳ¨": 2050,
      "ç«ł": 2051,
      "Ġthink": 2052,
      "Ġlocal": 2053,
      "pportun": 2054,
      "ĠYou": 2055,
      "Ġplan": 2056,
      "Ġeven": 2057,
      "éĽĨ": 2058,
      "å·§": 2059,
      "ax": 2060,
      "Ġchallenges": 2061,
      "):": 2062,
      "Ġprof": 2063,
      "ĠCan": 2064,
      "Ġconcer": 2065,
      "Ġfuture": 2066,
      "åĬ¿": 2067,
      "Ġref": 2068,
      "èģĶ": 2069,
      "Ġself": 2070,
      "æĪĸèĢħ": 2071,
      "ble": 2072,
      "åĽ´": 2073,
      "è¿ĲåĬ¨": 2074,
      "Ġinf": 2075,
      "éĩĬ": 2076,
      "Ġsustainable": 2077,
      "Ġtext": 2078,
      "Ġgra": 2079,
      "äºĮ": 2080,
      "åĵģçīĮ": 2081,
      "ä¸įåĲĮçļĦ": 2082,
      "led": 2083,
      "çĭ¬": 2084,
      "Ġopportun": 2085,
      "Ġcontin": 2086,
      "ym": 2087,
      "Ġget": 2088,
      "å¯Ĩ": 2089,
      "éĻ¤": 2090,
      "æħ": 2091,
      "Ġ+": 2092,
      "éģ¿åħį": 2093,
      "è§ī": 2094,
      "Ġret": 2095,
      "å¸ĥ": 2096,
      "Ġinterest": 2097,
      "Ġsociety": 2098,
      "ç»ĵæŀľ": 2099,
      "åĲ¬": 2100,
      "é¦ĸåħĪ": 2101,
      "Ġbre": 2102,
      "Ġ20": 2103,
      "ĠHowever": 2104,
      "è®°": 2105,
      "ons": 2106,
      "è¿ĳ": 2107,
      "å¼Ģå§ĭ": 2108,
      "Ġbuild": 2109,
      "Ġbeh": 2110,
      "'m": 2111,
      "vers": 2112,
      "Ġgood": 2113,
      "çĲĨè§£": 2114,
      "resent": 2115,
      "ç¦»": 2116,
      "åĬŁèĥ½": 2117,
      "Ġeffort": 2118,
      "labor": 2119,
      "é»ĳ": 2120,
      "Ġread": 2121,
      "Ġbetter": 2122,
      "å¾ĭ": 2123,
      "èĽĭ": 2124,
      "hed": 2125,
      "ä¹°": 2126,
      "å¯¼èĩ´": 2127,
      "Ġimplement": 2128,
      "ç¿": 2129,
      "äº«": 2130,
      "å¤´": 2131,
      "ense": 2132,
      "Ġlong": 2133,
      "other": 2134,
      "é¥®": 2135,
      "åŃĺåľ¨": 2136,
      "çļĦæĦ": 2137,
      "ä¸Ģä»½": 2138,
      "ython": 2139,
      "ning": 2140,
      "åĩıå°ĳ": 2141,
      "åĢĻ": 2142,
      "ä¸ĵ": 2143,
      "åĲĦç§į": 2144,
      "èħ": 2145,
      "å°½": 2146,
      "åįĩ": 2147,
      "æĬ¥": 2148,
      "Ġpublic": 2149,
      "Ġlar": 2150,
      "ä½łçļĦ": 2151,
      "aut": 2152,
      "é¢ĨåŁŁ": 2153,
      "æļ": 2154,
      "ollow": 2155,
      "èģĮ": 2156,
      "Ġchang": 2157,
      "Ġbest": 2158,
      "hip": 2159,
      "åĨį": 2160,
      "akes": 2161,
      "Ġchat": 2162,
      "ited": 2163,
      "Ġpower": 2164,
      "ä¿ĿæĬ¤": 2165,
      "ä¹¦": 2166,
      "è®¡åĪĴ": 2167,
      "éĩįè¦ģçļĦ": 2168,
      "åıĺåĮĸ": 2169,
      "ilities": 2170,
      "Ġconsider": 2171,
      "æĪĳä»¬åı¯ä»¥": 2172,
      "éĤ£ä¹Ī": 2173,
      "Ġide": 2174,
      "æ¼Ķ": 2175,
      "aging": 2176,
      "Ġbased": 2177,
      "å®Ŀ": 2178,
      "Ġrange": 2179,
      "Ġresult": 2180,
      "Ġmem": 2181,
      "çħ§": 2182,
      "Ġlevel": 2183,
      "cou": 2184,
      "Ġbr": 2185,
      "Th": 2186,
      "ä¼ģ": 2187,
      "å»ºç«ĭ": 2188,
      "Ġunique": 2189,
      "Ġmark": 2190,
      "è®Ń": 2191,
      "è®¸å¤ļ": 2192,
      "è¡Įä¸º": 2193,
      "Ķç©¶": 2194,
      "çļĦæĬ": 2195,
      "Ġset": 2196,
      "éª¤": 2197,
      "ts": 2198,
      "Ġhist": 2199,
      "Ġaround": 2200,
      "Ġrev": 2201,
      "åħ¶ä¸Ń": 2202,
      "æııè¿°": 2203,
      "æľĢåĲİ": 2204,
      "Ġsim": 2205,
      "nect": 2206,
      "åĽŀçŃĶ": 2207,
      "éĺ²": 2208,
      "èī¯": 2209,
      "åĪ°äºĨ": 2210,
      "ä¸ĸçķ": 2211,
      "æĸ¹æ¡Ī": 2212,
      "æĿĲæĸĻ": 2213,
      "ä¸ĸçķĮ": 2214,
      "æĽ´å¥½åľ°": 2215,
      "ä¸¤ä¸ª": 2216,
      "Ġemploy": 2217,
      "Ġtry": 2218,
      "æĵ": 2219,
      "Ġback": 2220,
      "åĪĩ": 2221,
      "Ġsuccess": 2222,
      "Ġdecisions": 2223,
      "Ġthose": 2224,
      "å¯Į": 2225,
      "Ġfact": 2226,
      "æİ¢": 2227,
      "è¶£": 2228,
      "Ġpractices": 2229,
      "åĲĹ": 2230,
      "æīį": 2231,
      "çİ©": 2232,
      "ption": 2233,
      "æĸĩç«ł": 2234,
      "Ġfeat": 2235,
      "Ġprevent": 2236,
      "Ġwriting": 2237,
      "çļĦæĢ": 2238,
      "Ġno": 2239,
      "ä»ĭ": 2240,
      "éĹ¨": 2241,
      "Ġdel": 2242,
      "æĴ": 2243,
      "Ġoptim": 2244,
      "ination": 2245,
      "ĠĊ": 2246,
      "usion": 2247,
      "Ġaccount": 2248,
      "ling": 2249,
      ".\"": 2250,
      "Ġdivers": 2251,
      "ath": 2252,
      "èĭ±": 2253,
      "ä¼ģä¸ļ": 2254,
      "Ġgrou": 2255,
      "åľ°çĲĥ": 2256,
      "å¤±": 2257,
      "Ġpersonalized": 2258,
      "ĠHe": 2259,
      "è¡¨è¾¾": 2260,
      "Ġfollow": 2261,
      "curity": 2262,
      "äº§çĶŁ": 2263,
      "Ġear": 2264,
      "åİĭ": 2265,
      "vern": 2266,
      "Ġissues": 2267,
      "åĿĩ": 2268,
      "Ġdr": 2269,
      "é²": 2270,
      "iving": 2271,
      "Ġtraining": 2272,
      "Ġrisk": 2273,
      "åĩ½": 2274,
      "åı²": 2275,
      "æĳ": 2276,
      "çļĦæĹ¶": 2277,
      "ogn": 2278,
      "Ġrequire": 2279,
      "Ġenvironmental": 2280,
      "back": 2281,
      "éĶ®": 2282,
      "çĸĹ": 2283,
      "Ġinteract": 2284,
      "åĽ¢éĺŁ": 2285,
      "æ¯ıä¸ª": 2286,
      "çĦ¶åĲİ": 2287,
      "Ġdist": 2288,
      "çĶ¨äºİ": 2289,
      "è®¤ä¸º": 2290,
      "Ġsent": 2291,
      "åĩ½æķ°": 2292,
      "ĊĠĠĠĠĠĠĠĠ": 2293,
      "Ġreducing": 2294,
      "å¹²": 2295,
      "Ġrep": 2296,
      "Ġcaus": 2297,
      "Ġmusic": 2298,
      "çª": 2299,
      "Ġmonitor": 2300,
      "Ġform": 2301,
      "é¢ľ": 2302,
      "çĹħ": 2303,
      "é¦Ļ": 2304,
      "Ġoften": 2305,
      "åı¯èĥ½ä¼ļ": 2306,
      "åĳĺå·¥": 2307,
      "Ġhand": 2308,
      "æĬķ": 2309,
      "Ġneeds": 2310,
      "æŃ¤å¤ĸ": 2311,
      "åıĭ": 2312,
      "ivity": 2313,
      "Ġactivities": 2314,
      "åĸľæ¬¢": 2315,
      "Ġpur": 2316,
      "ian": 2317,
      "self": 2318,
      "åĬ¨çī©": 2319,
      "comes": 2320,
      "å©": 2321,
      "Ġpriv": 2322,
      "az": 2323,
      "Ġrelations": 2324,
      "Ġmachine": 2325,
      "çļĦæ°": 2326,
      "ä»·æł¼": 2327,
      "ä»·åĢ¼": 2328,
      "ç´¢": 2329,
      "Ġfeed": 2330,
      "ä¸Ģä¸ĭ": 2331,
      "Ġteam": 2332,
      "Ġindustry": 2333,
      "è´¢": 2334,
      "ĠPro": 2335,
      "Ġwant": 2336,
      "ç§°": 2337,
      "Ġclass": 2338,
      "Ġlove": 2339,
      "åħ³äºİ": 2340,
      "è¾ĵåħ¥": 2341,
      "Ġtransport": 2342,
      "Ġcomplex": 2343,
      "Ġyear": 2344,
      "éĶĢåĶ®": 2345,
      "å¯»": 2346,
      "ience": 2347,
      "ists": 2348,
      "æĶ¯æĮģ": 2349,
      "Ġmind": 2350,
      "Ġfun": 2351,
      "Ġchar": 2352,
      "æĮī": 2353,
      "Ġconcerns": 2354,
      "conom": 2355,
      "ç®Ģåįķ": 2356,
      "ä»¥ä¸ĭæĺ¯": 2357,
      "Ġstart": 2358,
      "å¹¶ä¸Ķ": 2359,
      "avi": 2360,
      "ä¸ŃåĽ½": 2361,
      "åħĥç´ł": 2362,
      "Ġconf": 2363,
      "Ġpositive": 2364,
      "Ġcur": 2365,
      "Ġcount": 2366,
      "ery": 2367,
      "å¡": 2368,
      "å®¤": 2369,
      "Ġcost": 2370,
      "Ġequ": 2371,
      "Ġpolic": 2372,
      "aste": 2373,
      "aw": 2374,
      "éħĴ": 2375,
      "coura": 2376,
      "iven": 2377,
      "place": 2378,
      "chie": 2379,
      "çļĦæķ°": 2380,
      "Ġ0": 2381,
      "åĽłç´ł": 2382,
      "Ġfl": 2383,
      "ism": 2384,
      "Ġmedical": 2385,
      "Ġhumans": 2386,
      "Ġautom": 2387,
      "ertainly": 2388,
      "Ġoffers": 2389,
      "Ġ6": 2390,
      "Ġdetect": 2391,
      "é£İæł¼": 2392,
      "Ġshow": 2393,
      "çģ«": 2394,
      "Ġanim": 2395,
      "é¢ľèī²": 2396,
      "lease": 2397,
      "ave": 2398,
      "åĵª": 2399,
      "ĠThere": 2400,
      "ä»¥ä¸Ĭ": 2401,
      "æľªæĿ¥": 2402,
      "XX": 2403,
      "çīĩ": 2404,
      "uch": 2405,
      "Ġtasks": 2406,
      "åħ·ä½ĵ": 2407,
      "æ¤įçī©": 2408,
      "Ġmin": 2409,
      "èīºæľ¯": 2410,
      "icult": 2411,
      "Ġexperiences": 2412,
      "æİ§åĪ¶": 2413,
      "be": 2414,
      "Ġpatients": 2415,
      "å²": 2416,
      "ĠWe": 2417,
      "Ġrecogn": 2418,
      "çĥ¤": 2419,
      "Ġsmall": 2420,
      "åĿĹ": 2421,
      "åĦ": 2422,
      "å¤ªéĺ³": 2423,
      "ction": 2424,
      "Ġent": 2425,
      "æį¢": 2426,
      "Ġbefore": 2427,
      "Ġbecome": 2428,
      "å·²ç»ı": 2429,
      "è¡¨çİ°": 2430,
      "Ġexplo": 2431,
      "Ġachie": 2432,
      "ä»»åĬ¡": 2433,
      "å¤§çļĦ": 2434,
      "Ġday": 2435,
      "Ġfound": 2436,
      "å±±": 2437,
      "ond": 2438,
      "Ġtreatment": 2439,
      "pend": 2440,
      "hen": 2441,
      "Ġcondit": 2442,
      "ç¡®å®ļ": 2443,
      "Ġbusinesses": 2444,
      "ĠWh": 2445,
      "æīĢæľī": 2446,
      "Ġdeveloped": 2447,
      "ç»Ī": 2448,
      "æŃ¥éª¤": 2449,
      "Ġdifficult": 2450,
      "åı·": 2451,
      "ĠRe": 2452,
      "éĶĻ": 2453,
      "Ġcho": 2454,
      "Ġquest": 2455,
      "Ġtranspare": 2456,
      "Ġproject": 2457,
      "Ġcommunity": 2458,
      "ov": 2459,
      "å¸Ī": 2460,
      "å¼ł": 2461,
      "åĪĨç±»": 2462,
      "äººçļĦ": 2463,
      "sis": 2464,
      "çĽĬ": 2465,
      "oid": 2466,
      "ĠAn": 2467,
      "ways": 2468,
      "Ġeas": 2469,
      "Ġaffect": 2470,
      "Ġothers": 2471,
      "Ġregul": 2472,
      "æĢ§åĴĮ": 2473,
      "åĸĦ": 2474,
      "agn": 2475,
      "ä½ľä¸º": 2476,
      "åı¯ä»¥å¸®åĬ©": 2477,
      "åĦ¿": 2478,
      "Ġorganizations": 2479,
      "é¸¡": 2480,
      "åħ´": 2481,
      "Ġfriend": 2482,
      "Ġ$": 2483,
      "Ġdetail": 2484,
      "Ġtraditional": 2485,
      "Ġdesigned": 2486,
      "è´Ńä¹°": 2487,
      "ä½ĵéªĮ": 2488,
      "ç»į": 2489,
      "erm": 2490,
      "Ġconnect": 2491,
      "è¿Ļæł·": 2492,
      "Ġrecommendations": 2493,
      "Ġboth": 2494,
      "ŁéĢļ": 2495,
      "æ¯į": 2496,
      "Ġsit": 2497,
      "ä½ľçĶ¨": 2498,
      "ä»ĭç»į": 2499,
      "Ġste": 2500,
      "ĠSure": 2501,
      "åı°": 2502,
      "æĤ¨çļĦ": 2503,
      "Ġshe": 2504,
      "Ġmanagement": 2505,
      "(\"": 2506,
      "joy": 2507,
      "è´Ł": 2508,
      "Ġpromote": 2509,
      "Ġvarious": 2510,
      "),": 2511,
      "por": 2512,
      "Ġsens": 2513,
      "Ġessential": 2514,
      "gether": 2515,
      "ularly": 2516,
      "äºī": 2517,
      "irst": 2518,
      "Ġspecies": 2519,
      "Ġop": 2520,
      "çİ°åľ¨": 2521,
      "cho": 2522,
      "Ġbehavi": 2523,
      "çŃĳ": 2524,
      "å¥³": 2525,
      "Ġext": 2526,
      "Ġquality": 2527,
      "è¥": 2528,
      "å®ĮæĪĲ": 2529,
      "æĢ»ä¹ĭ": 2530,
      "éĥ¨åĪĨ": 2531,
      "ä»İèĢĮ": 2532,
      "åĽ¾": 2533,
      "Ġtyp": 2534,
      "Ġstrate": 2535,
      "è¥¿": 2536,
      "Ġhere": 2537,
      "ars": 2538,
      "å¸Į": 2539,
      "çļĦæĿ": 2540,
      "å°Ŀ": 2541,
      "ee": 2542,
      "ier": 2543,
      "Ġec": 2544,
      "ically": 2545,
      "ering": 2546,
      "å¿µ": 2547,
      "ĠDe": 2548,
      "Ġneg": 2549,
      "å»ºçŃĳ": 2550,
      "Ġservices": 2551,
      "Ġable": 2552,
      "imes": 2553,
      "Ġoptions": 2554,
      "çĽ¸åħ³": 2555,
      "Ġsub": 2556,
      "Ġdecision": 2557,
      "ĠCertainly": 2558,
      "Ġåľ¨": 2559,
      "æ¢": 2560,
      "Ġservice": 2561,
      "å¸¦æĿ¥": 2562,
      "Ġchild": 2563,
      "è§£éĩĬ": 2564,
      "irt": 2565,
      "çĨ": 2566,
      "ä¸įä»ħ": 2567,
      "æĿ¾": 2568,
      "ç§¯æŀģ": 2569,
      "ron": 2570,
      "åı¤": 2571,
      "çłĶç©¶": 2572,
      "ç²ī": 2573,
      "hor": 2574,
      "Ġprofess": 2575,
      "çļĦéĹ®é¢ĺ": 2576,
      "Ġopportunities": 2577,
      "åİĨåı²": 2578,
      "Ġdef": 2579,
      "ĠAm": 2580,
      "Ġgr": 2581,
      "aur": 2582,
      "å±Ĥ": 2583,
      "çŃĸ": 2584,
      "Ġpopular": 2585,
      "æ´ģ": 2586,
      "åıĳçİ°": 2587,
      "Ġpoem": 2588,
      "èµĽ": 2589,
      "Ġob": 2590,
      "Ġdon": 2591,
      "Ġsound": 2592,
      "Ġtransportation": 2593,
      "ious": 2594,
      "åı¦": 2595,
      "Ġrole": 2596,
      "Ġfiel": 2597,
      "ç§ĳåŃ¦": 2598,
      "èĢģ": 2599,
      "Ġcor": 2600,
      "reen": 2601,
      "æľīæķĪ": 2602,
      "Ġfeedback": 2603,
      "Ġtechnologies": 2604,
      "äº¤éĢļ": 2605,
      "Ġadapt": 2606,
      "'re": 2607,
      "ervation": 2608,
      "Ġcommunities": 2609,
      "çİ°ä»£": 2610,
      "Ġlook": 2611,
      "Ġfac": 2612,
      "çĶµå½±": 2613,
      "Ġcollect": 2614,
      "å¾ĹåĪ°": 2615,
      "hips": 2616,
      "Ġavail": 2617,
      "eren": 2618,
      "ä¸Ģèµ·": 2619,
      "çīĽ": 2620,
      "Ġposs": 2621,
      "Ġweather": 2622,
      "Ġefforts": 2623,
      "¿Ģ": 2624,
      "æĹħ": 2625,
      "oh": 2626,
      "Ġcollabor": 2627,
      "æĭ¥": 2628,
      "æĪĲåĬŁ": 2629,
      "èİ·å¾Ĺ": 2630,
      "å±ħ": 2631,
      "Ġtre": 2632,
      "Ġsources": 2633,
      "Ġstudy": 2634,
      "Ġprograms": 2635,
      "éĻĲ": 2636,
      "Ġtips": 2637,
      "Ġmarket": 2638,
      "ally": 2639,
      "å®³": 2640,
      "wards": 2641,
      "æ£Ģ": 2642,
      "ä¸Ģç¯ĩ": 2643,
      "rior": 2644,
      "Ġtop": 2645,
      "Ġend": 2646,
      "åĭ": 2647,
      "Ġlarge": 2648,
      "Ġdec": 2649,
      "iciency": 2650,
      "å®ļçļĦ": 2651,
      "icient": 2652,
      "è¿ĩç¨ĭä¸Ń": 2653,
      "lications": 2654,
      "ç¼º": 2655,
      "Ġtour": 2656,
      "Ġtogether": 2657,
      "äººå·¥": 2658,
      "Ġtools": 2659,
      "æĸ¯": 2660,
      "æ°ĳ": 2661,
      "æĬĬ": 2662,
      "ä¹ĭéĹ´çļĦ": 2663,
      "çī¹çĤ¹": 2664,
      "Ġbel": 2665,
      "ditionally": 2666,
      "åĪ©çĶ¨": 2667,
      "è¾¹": 2668,
      "éĻį": 2669,
      "ĠIf": 2670,
      "é¢Ŀ": 2671,
      "åįı": 2672,
      "å¾Ģ": 2673,
      "lish": 2674,
      "è¯ī": 2675,
      "ins": 2676,
      "å¥¶": 2677,
      "Ġeconom": 2678,
      "Ġinvest": 2679,
      "..": 2680,
      "ĠDo": 2681,
      "tain": 2682,
      "åĩºçİ°": 2683,
      "çļĦå½±åĵį": 2684,
      "aterial": 2685,
      "Ġsure": 2686,
      "Ġpass": 2687,
      "çĶ»": 2688,
      "è´£": 2689,
      "ç»ĵæŀĦ": 2690,
      "æķħ": 2691,
      "æĥħæĦŁ": 2692,
      "æ¿Ģ": 2693,
      "ellig": 2694,
      "ä¼Ĺ": 2695,
      "æ¯Ķè¾ĥ": 2696,
      "tern": 2697,
      "Ġoutcomes": 2698,
      "up": 2699,
      "Ġbeaut": 2700,
      "read": 2701,
      "çĶŁæĪĲ": 2702,
      "æķ°åŃĹ": 2703,
      "Ġdem": 2704,
      "ires": 2705,
      "åı¯ä»¥éĢļè¿ĩ": 2706,
      "æĸ°çļĦ": 2707,
      "Ġdeep": 2708,
      "å¨": 2709,
      "çĭĹ": 2710,
      "åħ³æ³¨": 2711,
      "çĶŁåĳ½": 2712,
      "ä¼łç»Ł": 2713,
      "Ġstay": 2714,
      "æŃĮ": 2715,
      "åħ³éĶ®": 2716,
      "Ġplace": 2717,
      "ä¸»é¢ĺ": 2718,
      "å¾Īå¤ļ": 2719,
      "èĪĴ": 2720,
      "Ġprofessional": 2721,
      "yle": 2722,
      "æĽ²": 2723,
      "19": 2724,
      "Ġessay": 2725,
      "Ġgive": 2726,
      "ç³ĸ": 2727,
      "Ġonly": 2728,
      "æŁĲ": 2729,
      "Ġphys": 2730,
      "å¯¹è¯Ŀ": 2731,
      "Ġcontro": 2732,
      "Ġamount": 2733,
      "cept": 2734,
      "ization": 2735,
      "ç¼ĸåĨĻ": 2736,
      "åıĹåĪ°": 2737,
      "Ġalways": 2738,
      "æ¯Ķå¦Ĥ": 2739,
      "Ġprivacy": 2740,
      "au": 2741,
      "________": 2742,
      "Ġresponsible": 2743,
      "çŃīçŃī": 2744,
      "Ġmaterial": 2745,
      "Ġonline": 2746,
      "é¼": 2747,
      "æĶ¿": 2748,
      "åĽĽ": 2749,
      "Ġenjoy": 2750,
      "åľŁ": 2751,
      "Ġsafety": 2752,
      "Ġtw": 2753,
      "Ġcommunication": 2754,
      "ä¸½": 2755,
      "æĺ¾": 2756,
      "olution": 2757,
      "erg": 2758,
      "įä½ľ": 2759,
      "Ġuser": 2760,
      "Ġemotional": 2761,
      "time": 2762,
      "é¾": 2763,
      "Ġsecurity": 2764,
      "Ġsense": 2765,
      "()": 2766,
      "elines": 2767,
      "åĬ±": 2768,
      "çī©è´¨": 2769,
      "ura": 2770,
      "Ġshare": 2771,
      "Ġanalyzing": 2772,
      "ital": 2773,
      "é±": 2774,
      "irtual": 2775,
      "Ġvisit": 2776,
      "bers": 2777,
      "Ġcour": 2778,
      "Ġproble": 2779,
      "è®¾å¤ĩ": 2780,
      "atch": 2781,
      "land": 2782,
      "é±¼": 2783,
      "æĪĳä»¬éľĢè¦ģ": 2784,
      "ç¨³": 2785,
      "ibility": 2786,
      "Ġefficiency": 2787,
      "å£°": 2788,
      "èĴ": 2789,
      "æľºåĻ¨": 2790,
      "Ġclear": 2791,
      "åĪ¶å®ļ": 2792,
      "izing": 2793,
      "Ġconditions": 2794,
      "Ġlow": 2795,
      "lusion": 2796,
      "Ġlim": 2797,
      "hers": 2798,
      "Ġrisks": 2799,
      "ç¿»": 2800,
      "Ġlet": 2801,
      "åĴĸ": 2802,
      "å¿ĥçĲĨ": 2803,
      "è¿ľ": 2804,
      "print": 2805,
      "Ġchanges": 2806,
      "Ġimproving": 2807,
      "Ġmeas": 2808,
      "Ġcrit": 2809,
      "50": 2810,
      "å¸ĮæľĽ": 2811,
      "Ġaud": 2812,
      "åįĹ": 2813,
      "æĹłæ³ķ": 2814,
      "Ġnegative": 2815,
      "é¡¹çĽ®": 2816,
      "und": 2817,
      "ats": 2818,
      "Ġcompanies": 2819,
      "æī¾åĪ°": 2820,
      "Ġcontribut": 2821,
      "æŃ£ç¡®": 2822,
      "é»Ħ": 2823,
      "å±ŀ": 2824,
      "Ġunderstanding": 2825,
      "Ġmult": 2826,
      "Ġclo": 2827,
      "å¾ģ": 2828,
      "Ġprior": 2829,
      "rim": 2830,
      "äººå·¥æĻºèĥ½": 2831,
      "Ġtaking": 2832,
      "Ġvariety": 2833,
      "åĤ": 2834,
      "aster": 2835,
      "ody": 2836,
      "Ġ{": 2837,
      "çļĦéĩįè¦ģ": 2838,
      "Ġfore": 2839,
      "èµĦæºĲ": 2840,
      "è¦ģæ±Ĥ": 2841,
      "Ġfeatures": 2842,
      "èįī": 2843,
      "èĮĥ": 2844,
      "Ġoper": 2845,
      "çº§": 2846,
      "me": 2847,
      "é²ľ": 2848,
      "æĬĢå·§": 2849,
      "ĳæĪĺ": 2850,
      "ç±»åŀĭ": 2851,
      "æĿ¿": 2852,
      "è½¯": 2853,
      "ew": 2854,
      "Ġrestaur": 2855,
      "\",": 2856,
      "Ġwithout": 2857,
      "ructure": 2858,
      "çļĦæĺ¯": 2859,
      "çı": 2860,
      "Ġlist": 2861,
      "urate": 2862,
      "Ġbook": 2863,
      "äº²": 2864,
      "åºĹ": 2865,
      "ä¹Łæĺ¯": 2866,
      "ä»»ä½ķ": 2867,
      "Ġcam": 2868,
      "ĠBe": 2869,
      "Ġgovern": 2870,
      "Ġbehavior": 2871,
      "è®Ńç»ĥ": 2872,
      "Ġfamily": 2873,
      "æĿĤ": 2874,
      "Ġcity": 2875,
      "Ġapproach": 2876,
      "Ġaccurate": 2877,
      "Ġsom": 2878,
      "Ġel": 2879,
      "èĪŀ": 2880,
      "èŀ": 2881,
      "åŁºæľ¬": 2882,
      "Ġdise": 2883,
      "Ġencoura": 2884,
      "ĠWhat": 2885,
      "åĥ": 2886,
      "è¯¦": 2887,
      "¦Ĥ": 2888,
      "å·¥åħ·": 2889,
      "åķ¡": 2890,
      "Ġstill": 2891,
      "chool": 2892,
      "æĦŁåĪ°": 2893,
      "çĶŁçī©": 2894,
      "åĴĸåķ¡": 2895,
      "åĩĨå¤ĩ": 2896,
      "Ġ8": 2897,
      "Ġwaste": 2898,
      "Ġevents": 2899,
      "æķĻèĤ²": 2900,
      "Ġmust": 2901,
      "ied": 2902,
      "asing": 2903,
      "å½¢æĪĲ": 2904,
      "Ġproducts": 2905,
      "åħ¸": 2906,
      "è®²": 2907,
      "fter": 2908,
      "å·®": 2909,
      "less": 2910,
      "Ġcro": 2911,
      "Ġfinan": 2912,
      "åıįåºĶ": 2913,
      "åĪĽéĢł": 2914,
      "Ġguidelines": 2915,
      "åĪ¤": 2916,
      "ä½ľåĵģ": 2917,
      "è¡¨ç¤º": 2918,
      "å¼Ĥ": 2919,
      "Ġknown": 2920,
      "Ġtest": 2921,
      "è¯¯": 2922,
      "ope": 2923,
      "Ġusers": 2924,
      "AI": 2925,
      "å¾·": 2926,
      "new": 2927,
      "è¿½": 2928,
      "iques": 2929,
      "æ¨¡åŀĭ": 2930,
      "åĬĽåĴĮ": 2931,
      "Ġhistory": 2932,
      "ĠAl": 2933,
      "æĬķèµĦ": 2934,
      "å°Ŀè¯ķ": 2935,
      "ank": 2936,
      "Ġhome": 2937,
      "éĴŁ": 2938,
      "ä¸°": 2939,
      "èĪĴéĢĤ": 2940,
      "Ġincrease": 2941,
      "Ġhab": 2942,
      "åĪ»": 2943,
      "è¾ĵåĩº": 2944,
      "Ġ7": 2945,
      "Ġleading": 2946,
      "é£İéĻ©": 2947,
      "Ġhapp": 2948,
      "Ġperformance": 2949,
      "åŃ£": 2950,
      "Ġstand": 2951,
      "ty": 2952,
      "ç¦ı": 2953,
      "Ġcustomers": 2954,
      "åįİ": 2955,
      "Ġbelie": 2956,
      "Ġcompany": 2957,
      "å½ķ": 2958,
      "é£Łçī©": 2959,
      "ĠUn": 2960,
      "Ġsumm": 2961,
      "rent": 2962,
      "ĠCon": 2963,
      "éĢĤéĩı": 2964,
      "Ġi": 2965,
      "anced": 2966,
      "Ġlight": 2967,
      "Ġanalysis": 2968,
      "å°Ĭ": 2969,
      "ĠUse": 2970,
      "ouse": 2971,
      "ted": 2972,
      "Ġcharact": 2973,
      "Ġ#": 2974,
      "ç»ľ": 2975,
      "ä¸įæĺ¯": 2976,
      "Ġdeveloping": 2977,
      "åŁ¹": 2978,
      "to": 2979,
      "Ġstrategies": 2980,
      "Ġmight": 2981,
      "çŁŃ": 2982,
      "Ġfirst": 2983,
      "çļĦæİ": 2984,
      "èĥĮ": 2985,
      "çĮ«": 2986,
      "Ġincludes": 2987,
      "åĽŃ": 2988,
      "Ġdiagn": 2989,
      "12": 2990,
      "Ġgrowth": 2991,
      "ä¸ĵä¸ļ": 2992,
      "Ġdoes": 2993,
      "ç»¿": 2994,
      "Ġkeep": 2995,
      "è¯¦ç»Ĩ": 2996,
      "åĥı": 2997,
      "åıĳçĶŁ": 2998,
      "fact": 2999,
      "åı¯ä»¥åľ¨": 3000,
      "ç«Ļ": 3001,
      "æĭī": 3002,
      "æµİ": 3003,
      "Ġchatbots": 3004,
      "Ġbreak": 3005,
      "è¡¡": 3006,
      "çŁ³": 3007,
      "æĮģç»Ń": 3008,
      "life": 3009,
      "Ġ10": 3010,
      "æ´Ĺ": 3011,
      "ĠAdditionally": 3012,
      "å£«": 3013,
      "ember": 3014,
      "Ġgoals": 3015,
      "å¾®": 3016,
      "Ġview": 3017,
      "Â·": 3018,
      "ove": 3019,
      "åŁºç¡": 3020,
      "Ġoptimize": 3021,
      "Ġtem": 3022,
      "Ġdown": 3023,
      "åŁºç¡Ģ": 3024,
      "è¶ħ": 3025,
      "ercis": 3026,
      "Ġless": 3027,
      "ees": 3028,
      "æĿĥ": 3029,
      "Ġkey": 3030,
      "Ġworks": 3031,
      "è®¨": 3032,
      "åı¥åŃĲ": 3033,
      "Ġrobot": 3034,
      "uss": 3035,
      "åħ¨çĲĥ": 3036,
      "ç»ıæµİ": 3037,
      "æīįèĥ½": 3038,
      "egr": 3039,
      "ä»ĸä»¬çļĦ": 3040,
      "äºĶ": 3041,
      "èµ·æĿ¥": 3042,
      "çĵ": 3043,
      "Ġfactors": 3044,
      "Ġcultural": 3045,
      "æľ¨": 3046,
      "Ġworking": 3047,
      "ä¼¼": 3048,
      "èĲ½": 3049,
      "éĢŁåº¦": 3050,
      "ä½ı": 3051,
      "Ġeffects": 3052,
      "å©ļ": 3053,
      "br": 3054,
      "åİħ": 3055,
      "rain": 3056,
      "åŃ¦çĶŁ": 3057,
      "Ġpar": 3058,
      "atform": 3059,
      "Ġensuring": 3060,
      "çĶ±äºİ": 3061,
      "Ġwords": 3062,
      "Ġmuch": 3063,
      "Ġmar": 3064,
      "ç»ıéªĮ": 3065,
      "ä¸ºäºĨ": 3066,
      "åĲĪä½ľ": 3067,
      "ven": 3068,
      "Ġ/": 3069,
      "Ġfinancial": 3070,
      "ories": 3071,
      "æ²»": 3072,
      "work": 3073,
      "Ġtechniques": 3074,
      "æĭ¥æľī": 3075,
      "rap": 3076,
      "å°Ķ": 3077,
      "Ġest": 3078,
      "\")": 3079,
      "Ġavailable": 3080,
      "Ġlit": 3081,
      "æ¹": 3082,
      "Ġefficient": 3083,
      "els": 3084,
      "over": 3085,
      "Ġland": 3086,
      "Ġarea": 3087,
      "Ġintellig": 3088,
      "Ġpref": 3089,
      "ature": 3090,
      "çŁ¥è¯Ĩ": 3091,
      "æĵįä½ľ": 3092,
      "å¾ħ": 3093,
      "igate": 3094,
      "çļĦæĶ": 3095,
      "Ġmean": 3096,
      "bo": 3097,
      "Ġcontrol": 3098,
      "éĩĩçĶ¨": 3099,
      "ricult": 3100,
      "Ġprogramm": 3101,
      "Ġtowards": 3102,
      "thing": 3103,
      "ä¸įè¦ģ": 3104,
      "Ġthough": 3105,
      "å½©": 3106,
      "Ġcertain": 3107,
      "Ġwild": 3108,
      "ä»Ĭ": 3109,
      "Ġconservation": 3110,
      "çŁ¥éģĵ": 3111,
      "Ġreally": 3112,
      "çļĦåľ°": 3113,
      "io": 3114,
      "é¥°": 3115,
      "Ġful": 3116,
      "çİ¯ä¿Ŀ": 3117,
      "Ġexplore": 3118,
      "çļĦæ¸": 3119,
      "Ġdiverse": 3120,
      "åĬłå¼º": 3121,
      "çļ®": 3122,
      "Ġemotions": 3123,
      "Ġavoid": 3124,
      "'ll": 3125,
      "çļĦæī": 3126,
      "åį¡": 3127,
      "Ġplatform": 3128,
      "ances": 3129,
      "Ġsitu": 3130,
      "ä»ĺ": 3131,
      "ä½įç½®": 3132,
      "oring": 3133,
      "çĽĲ": 3134,
      "ä¸ĩ": 3135,
      "Ġdev": 3136,
      "nov": 3137,
      "ash": 3138,
      "Ġtwo": 3139,
      "å®ł": 3140,
      "bon": 3141,
      "èµ°": 3142,
      "åĪĹè¡¨": 3143,
      "Ġcy": 3144,
      "èįĲ": 3145,
      "ĠSome": 3146,
      "Ġexplain": 3147,
      "Ġaware": 3148,
      "ç¤¾äº¤": 3149,
      "day": 3150,
      "åıĮ": 3151,
      "æ²ŁéĢļ": 3152,
      "æ°§": 3153,
      "å¼Ģåıĳ": 3154,
      "åħ¬åı¸çļĦ": 3155,
      "Ġair": 3156,
      "åĩ»": 3157,
      "aring": 3158,
      "éĥ½æĺ¯": 3159,
      "Ġlevels": 3160,
      "ods": 3161,
      "Ġsteps": 3162,
      "Ġcap": 3163,
      "æ´ŀ": 3164,
      "é©¬": 3165,
      "Ġreturn": 3166,
      "Ġmet": 3167,
      "çĶŁæĢģ": 3168,
      "ä¸°å¯Į": 3169,
      "æŁĵ": 3170,
      "æīĢä»¥": 3171,
      "é¡»": 3172,
      "Ġer": 3173,
      "30": 3174,
      "Ġfra": 3175,
      "èĵ": 3176,
      "âĢĶ": 3177,
      "Ġå½ĵ": 3178,
      "ĠĠĠĠĠĠĠĠĠĠĠĠĠĠĠĠ": 3179,
      "ah": 3180,
      "ä¿ĥ": 3181,
      "Ġlikely": 3182,
      "åĪĿ": 3183,
      "Ġcreating": 3184,
      "Ġfarm": 3185,
      "Ġbal": 3186,
      "Ġlives": 3187,
      "å®ĥçļĦ": 3188,
      "Ġability": 3189,
      "Ġsentence": 3190,
      "ä¸ĬçļĦ": 3191,
      "åĤ¨": 3192,
      "Ġrout": 3193,
      "Ġagain": 3194,
      "Ġprovides": 3195,
      "å®łçī©": 3196,
      "éĢĲ": 3197,
      "Ġyears": 3198,
      "èŀį": 3199,
      "Ġphysical": 3200,
      "Python": 3201,
      "ĠEx": 3202,
      "iting": 3203,
      "è°ĥæķ´": 3204,
      "ç½ĳç»ľ": 3205,
      "æħ¢": 3206,
      "ç©ºéĹ´": 3207,
      "åĽ°": 3208,
      "è±Ĩ": 3209,
      "æĽ´å¤ļçļĦ": 3210,
      "ĠAr": 3211,
      "Ġmaintain": 3212,
      "å®ŀéĻħ": 3213,
      "Ġtravel": 3214,
      "Ġsat": 3215,
      "çĶµåŃĲ": 3216,
      "pro": 3217,
      "ĊĠ": 3218,
      "æ±½": 3219,
      "åģĩ": 3220,
      "æĲŃ": 3221,
      "ex": 3222,
      "éļıçĿĢ": 3223,
      "è¿ĺæľī": 3224,
      "ç¤¼": 3225,
      "ale": 3226,
      "Ġconsum": 3227,
      "ncy": 3228,
      "Ġquestions": 3229,
      "fort": 3230,
      "making": 3231,
      "Ġdesc": 3232,
      "15": 3233,
      "Ġinvolves": 3234,
      "Ġstress": 3235,
      "åŃĹç¬¦": 3236,
      "Ġimpacts": 3237,
      "here": 3238,
      "Ġexercis": 3239,
      "åĿļ": 3240,
      "ledge": 3241,
      "ç§ĳæĬĢ": 3242,
      "oci": 3243,
      "Ġeffectively": 3244,
      "æ¶Īè´¹": 3245,
      "Ġconclusion": 3246,
      "éĺħ": 3247,
      "Ġstre": 3248,
      "issions": 3249,
      "æ·»": 3250,
      "It": 3251,
      "éĿĻ": 3252,
      "Ġvirtual": 3253,
      "è¡£": 3254,
      "Ġachieve": 3255,
      "ource": 3256,
      "è¿ŀ": 3257,
      "acks": 3258,
      "è¡¨æł¼": 3259,
      "Ġimportance": 3260,
      "èĩªæĪĳ": 3261,
      "These": 3262,
      "num": 3263,
      "Ġrelationships": 3264,
      "çļĦæł": 3265,
      "Ġworkers": 3266,
      "gical": 3267,
      "orpor": 3268,
      "erson": 3269,
      "åĳ¢": 3270,
      "nds": 3271,
      "æİ¨èįĲ": 3272,
      "ohn": 3273,
      "å¿ħé¡»": 3274,
      "å®¹æĺĵ": 3275,
      "ĠGo": 3276,
      "ĠRes": 3277,
      "Ġtell": 3278,
      "onom": 3279,
      "Ġbec": 3280,
      "æ³Ľ": 3281,
      "Ġmove": 3282,
      "pos": 3283,
      "Ġstory": 3284,
      "æŃ¢": 3285,
      "Ġpriorit": 3286,
      "Ġindustries": 3287,
      "èľ": 3288,
      "Ġpossible": 3289,
      "Ġexpress": 3290,
      "ĠMan": 3291,
      "abilities": 3292,
      "Ġintegr": 3293,
      "ä»£è¡¨": 3294,
      "Ġrespond": 3295,
      "åĪĨéĴŁ": 3296,
      "æľºä¼ļ": 3297,
      "Ġthings": 3298,
      "äº¤æµģ": 3299,
      "Ġmeth": 3300,
      "urther": 3301,
      "Ġwide": 3302,
      "èĳĹ": 3303,
      "æĪĳçļĦ": 3304,
      "ĸçķ¥": 3305,
      "ething": 3306,
      "ides": 3307,
      "ĠWhile": 3308,
      "pan": 3309,
      "çŃĸçķ¥": 3310,
      "Ġcent": 3311,
      "Ġplease": 3312,
      "ology": 3313,
      "uracy": 3314,
      "å¾ª": 3315,
      "ward": 3316,
      "nce": 3317,
      "Ġthen": 3318,
      "çªģ": 3319,
      "å¥ĩ": 3320,
      "Ġblo": 3321,
      "ai": 3322,
      "æŀĹ": 3323,
      "ç®Ĺæ³ķ": 3324,
      "ç»¼": 3325,
      "Ġprint": 3326,
      "aces": 3327,
      "lu": 3328,
      "ªæĸ½": 3329,
      "çļĦæĦı": 3330,
      "pre": 3331,
      "Ġsol": 3332,
      "Ġoverall": 3333,
      "hold": 3334,
      "Ġes": 3335,
      "çļĦä¸Ģ": 3336,
      "éģĩ": 3337,
      "Ġpopul": 3338,
      "å°ıè¯´": 3339,
      "æ³¢": 3340,
      "åįģ": 3341,
      "ä¹Łåı¯ä»¥": 3342,
      "Ġcontent": 3343,
      "é£Łåĵģ": 3344,
      "å°Ħ": 3345,
      "Ġrequires": 3346,
      "æ£ĢæŁ¥": 3347,
      "ĊĠĠĠĠĠĠĠĠĠĠĠ": 3348,
      "Ġgroups": 3349,
      "Ġfair": 3350,
      "Ġbl": 3351,
      "å®ŀéªĮ": 3352,
      "æĮīçħ§": 3353,
      "osp": 3354,
      "str": 3355,
      "ä¸įèĥ½": 3356,
      "Ġharm": 3357,
      "Ġprodu": 3358,
      "çļĦæĬĢ": 3359,
      "çĩ": 3360,
      "tle": 3361,
      "Ġanimals": 3362,
      "è§Ĵèī²": 3363,
      "lev": 3364,
      "æ¸Ĳ": 3365,
      "å¤įæĿĤ": 3366,
      "Ġdepend": 3367,
      "æĮĳæĪĺ": 3368,
      "ĠĠĠĠĠ": 3369,
      "åĮħåĲ«": 3370,
      "Ġhelps": 3371,
      "Ġopen": 3372,
      "Ġnet": 3373,
      "Ġstrong": 3374,
      "Ġjour": 3375,
      "å¹¿æ³Ľ": 3376,
      "æķ´ä¸ª": 3377,
      "Ġelect": 3378,
      "Ġresponse": 3379,
      "åįķè¯į": 3380,
      "æľĭ": 3381,
      "Ġ<": 3382,
      "åĮĸåŃ¦": 3383,
      "éĴĪ": 3384,
      "Ġquick": 3385,
      "ually": 3386,
      "Ġsomething": 3387,
      "Ġtrack": 3388,
      "åº¦åĴĮ": 3389,
      "erences": 3390,
      "æłĳ": 3391,
      "Ġaccuracy": 3392,
      "Ġexc": 3393,
      "Ġfield": 3394,
      "é£ŀ": 3395,
      "å¯»æī¾": 3396,
      "éħ¸": 3397,
      "Ġhope": 3398,
      "çĳ": 3399,
      "Ġinnov": 3400,
      "ç»ª": 3401,
      "alk": 3402,
      "Ġtypes": 3403,
      "Ġdid": 3404,
      "åĬª": 3405,
      "Ġcall": 3406,
      "è¯Ĺ": 3407,
      "Ġearly": 3408,
      "ĠOne": 3409,
      "app": 3410,
      "Ġcommon": 3411,
      "Ġcheck": 3412,
      "æľĢç»Ī": 3413,
      "Ġsym": 3414,
      "çĤĴ": 3415,
      "æĬĢèĥ½": 3416,
      "Ġenh": 3417,
      "Ġimm": 3418,
      "Ġagricult": 3419,
      "ç»ĩ": 3420,
      "æ»¡è¶³": 3421,
      "Ġschool": 3422,
      "Ġfollowing": 3423,
      "bal": 3424,
      "based": 3425,
      "Ġwebs": 3426,
      "Ġculture": 3427,
      "ĠCom": 3428,
      "way": 3429,
      "ä¸Ģå®ļ": 3430,
      "åķĨåĵģ": 3431,
      "ude": 3432,
      "çļĦåıĳå±ķ": 3433,
      "çĶŁäº§": 3434,
      "osystem": 3435,
      "Ġplant": 3436,
      "åı¶": 3437,
      "åĲĥ": 3438,
      "ä»ĸçļĦ": 3439,
      "è¯¢": 3440,
      "der": 3441,
      "å®¶åħ·": 3442,
      "Ġfree": 3443,
      "ç§»": 3444,
      "æİĮ": 3445,
      "Ġbody": 3446,
      "Ġpresent": 3447,
      "Ġparticularly": 3448,
      "Ġstudent": 3449,
      "Ġchildren": 3450,
      ").": 3451,
      "çī¹å¾ģ": 3452,
      "èĶ": 3453,
      "éĺħè¯»": 3454,
      "Ġprogram": 3455,
      "æķĪçİĩ": 3456,
      "éħ±": 3457,
      "åıĺå¾Ĺ": 3458,
      "ix": 3459,
      "Ġcome": 3460,
      "ĠTe": 3461,
      "çļĦæ²": 3462,
      "ĠTo": 3463,
      "åħ±åĲĮ": 3464,
      "Ġemployees": 3465,
      "è¯´æĺİ": 3466,
      "Ġheart": 3467,
      "Ġmot": 3468,
      "æľĭåıĭ": 3469,
      "eric": 3470,
      "è¯ĳ": 3471,
      "Ġcurrent": 3472,
      "æĪĲæľ¬": 3473,
      "Ġtoo": 3474,
      "çİ©å®¶": 3475,
      "åĪĽæĸ°": 3476,
      "Ġecosystem": 3477,
      "å¸¸è§ģ": 3478,
      "ä¸ĢæŃ¥": 3479,
      "Ġpres": 3480,
      "Ġmulti": 3481,
      "åĳĬè¯ī": 3482,
      "ä¸¥": 3483,
      "Ġmit": 3484,
      "Ġaction": 3485,
      "çĨŁ": 3486,
      "Ġhabit": 3487,
      "åı£æĦŁ": 3488,
      "ç®±": 3489,
      "Ġuses": 3490,
      "å¢ŀå¼º": 3491,
      "ç»Ļåĩº": 3492,
      "Ġ9": 3493,
      "Ġdep": 3494,
      "Ġeconomic": 3495,
      "æĢ§çļĦ": 3496,
      "18": 3497,
      "åĨ°": 3498,
      "Ġhelped": 3499,
      "åĲ¸å¼ķ": 3500,
      "çİĭ": 3501,
      "Ġdiagnos": 3502,
      "åł": 3503,
      "èģĶç³»": 3504,
      "ç¾¤": 3505,
      "ç»ĥä¹ł": 3506,
      "æĪĲéķ¿": 3507,
      "Ġpoint": 3508,
      "å®ļæľŁ": 3509,
      "åĳ¼": 3510,
      "èį¯": 3511,
      "æĿ¯": 3512,
      "æ¤Ĵ": 3513,
      "æķĪæŀľ": 3514,
      "Ġspecial": 3515,
      "æ··": 3516,
      "åĩłä¸ª": 3517,
      "ause": 3518,
      "éĨ": 3519,
      "æ¯ĶèµĽ": 3520,
      "è·Ŀ": 3521,
      "What": 3522,
      "Ġtimes": 3523,
      "icles": 3524,
      "Ġ*": 3525,
      "ç´§": 3526,
      "å¦Ĥæŀľä½ł": 3527,
      "çĭ¬çī¹": 3528,
      "çģµ": 3529,
      "ç¨İ": 3530,
      "Ġcarbon": 3531,
      "Ġbias": 3532,
      "åĬ©äºİ": 3533,
      "Ġconst": 3534,
      "èĩªçĶ±": 3535,
      "æĿ¥è¯´": 3536,
      "å°±æĺ¯": 3537,
      "åį°": 3538,
      "Ġmeet": 3539,
      "è§ĦåĪĴ": 3540,
      "çļĦç¾": 3541,
      "èĲ¥åħ»": 3542,
      "ators": 3543,
      "ç¨³å®ļ": 3544,
      "ode": 3545,
      "çħ®": 3546,
      "Ġassoci": 3547,
      "å¿Ĺ": 3548,
      "è¡ĮæĺŁ": 3549,
      "æĿİ": 3550,
      "Ġreview": 3551,
      "åĩĢ": 3552,
      "ĠRo": 3553,
      "Ġknowledge": 3554,
      "ä»¥ä¾¿": 3555,
      "æµĭè¯ķ": 3556,
      "åĲĪéĢĤ": 3557,
      "sc": 3558,
      "å½¢å¼ı": 3559,
      "Ġfriends": 3560,
      "Ġnature": 3561,
      "Ġcritical": 3562,
      "æ´ĭ": 3563,
      "Ġafter": 3564,
      "Ġrece": 3565,
      "erve": 3566,
      "çļĦæŃ": 3567,
      "æ±½è½¦": 3568,
      "',": 3569,
      "çķĮ": 3570,
      "Ġloss": 3571,
      "Ġapplications": 3572,
      "å¤ļç§į": 3573,
      "éĶħ": 3574,
      "ä¸²": 3575,
      "Ġinsp": 3576,
      "---": 3577,
      "ĠSh": 3578,
      "Ġvol": 3579,
      "lut": 3580,
      "oks": 3581,
      "sequ": 3582,
      "Ġbir": 3583,
      "åĲĪçĲĨ": 3584,
      "Ġnecess": 3585,
      "æĪĳæĥ³": 3586,
      "çŃīæĸ¹éĿ¢": 3587,
      "é¼ĵ": 3588,
      "Ġsoft": 3589,
      "Ġlive": 3590,
      "å°ıæĺİ": 3591,
      "ĠInd": 3592,
      "Ġbring": 3593,
      "æĺ¯æĮĩ": 3594,
      "Ġsoil": 3595,
      "ilar": 3596,
      "ä¸ľ": 3597,
      "æĿ¡ä»¶": 3598,
      "Ġtri": 3599,
      "äº®": 3600,
      "Ġmom": 3601,
      "æı¡": 3602,
      "ä¼°": 3603,
      "ŀäºī": 3604,
      "çĽĳ": 3605,
      "èĤ¤": 3606,
      "è´¢åĬ¡": 3607,
      "æ·»åĬł": 3608,
      "é¥®é£Ł": 3609,
      "Ġallowing": 3610,
      "åºķ": 3611,
      "Ġright": 3612,
      "Ġexpert": 3613,
      "Ġsupp": 3614,
      "Ġinit": 3615,
      "çļĦæµ": 3616,
      "arget": 3617,
      "Ġexpect": 3618,
      "Ġ19": 3619,
      "Ġmeasures": 3620,
      "olutions": 3621,
      "just": 3622,
      "arc": 3623,
      "å°ļ": 3624,
      "Ġpractice": 3625,
      "æľīåĬ©äºİ": 3626,
      "å¤§éĩı": 3627,
      "iment": 3628,
      "Ġcontinue": 3629,
      "Ġdiscuss": 3630,
      "100": 3631,
      "éļľ": 3632,
      "çļĦæĦŁ": 3633,
      "Ġreflect": 3634,
      "itation": 3635,
      "åį«": 3636,
      "äºĨä¸Ģ": 3637,
      "ĠLe": 3638,
      "ney": 3639,
      "ised": 3640,
      "è¶ĭ": 3641,
      "äºĨä¸Ģä¸ª": 3642,
      "Ġincreasing": 3643,
      "çļĦæĮ": 3644,
      "Ġstru": 3645,
      "æĢ»ç»ĵ": 3646,
      "ely": 3647,
      "å®ĩ": 3648,
      "Ġauthor": 3649,
      "è¡¨éĿ¢": 3650,
      "Ġx": 3651,
      "æķħäºĭ": 3652,
      "emic": 3653,
      "Ġrepresent": 3654,
      "ger": 3655,
      "Ġincreased": 3656,
      "ones": 3657,
      "ains": 3658,
      "Ġtrained": 3659,
      "Ġfish": 3660,
      "Ġstate": 3661,
      "åĨ·": 3662,
      "çĶŁéķ¿": 3663,
      "Ġrenew": 3664,
      "ording": 3665,
      "åĮĹ": 3666,
      "æİªæĸ½": 3667,
      "å¹³è¡¡": 3668,
      "Ġsuccessful": 3669,
      "ä¸ĭéĿ¢": 3670,
      "Ġactivity": 3671,
      "èĮ¶": 3672,
      "éĢĤåºĶ": 3673,
      "èĦĳ": 3674,
      "æİ¢ç´¢": 3675,
      "ffic": 3676,
      "ç»ĦæĪĲ": 3677,
      "atives": 3678,
      "äºļ": 3679,
      "Ġscen": 3680,
      "æ²Ļ": 3681,
      "gress": 3682,
      "ä½¿å¾Ĺ": 3683,
      "æī¿": 3684,
      "Ġdiscrim": 3685,
      "Ġassistants": 3686,
      "Ġexist": 3687,
      "Ġspace": 3688,
      "çķĻ": 3689,
      "æľĢè¿ĳ": 3690,
      "Ġideas": 3691,
      "éĩĩåıĸ": 3692,
      "light": 3693,
      "æ³¨éĩį": 3694,
      "çļĦæĹ¶éĹ´": 3695,
      "è¿İ": 3696,
      "Ġcomb": 3697,
      "Ġyourself": 3698,
      "éĢĤå½ĵ": 3699,
      "rite": 3700,
      "ason": 3701,
      "åĮĢ": 3702,
      "åı¯ä»¥ä½¿çĶ¨": 3703,
      "åħħæ»¡": 3704,
      "Ġvalues": 3705,
      "æ½": 3706,
      "Ġbiases": 3707,
      "ä¿ĥè¿Ľ": 3708,
      "åľºæĻ¯": 3709,
      "ross": 3710,
      "åį³åı¯": 3711,
      "Ġcru": 3712,
      "Ġnumber": 3713,
      "Ġtype": 3714,
      "rast": 3715,
      "åĩĨç¡®": 3716,
      "Ġpast": 3717,
      "This": 3718,
      "çģ¯": 3719,
      "å®ļä¹ī": 3720,
      "Ġsolutions": 3721,
      "Ġter": 3722,
      "ä¿Ŀè¯ģ": 3723,
      "èĶ¬": 3724,
      "å¹¸": 3725,
      "åī§": 3726,
      "åħ´è¶£": 3727,
      "åª": 3728,
      "ention": 3729,
      "avor": 3730,
      "Ġscient": 3731,
      "åĬªåĬĽ": 3732,
      "Ġproviders": 3733,
      "Ġpolicies": 3734,
      "alu": 3735,
      "ĠIm": 3736,
      "Ġallows": 3737,
      "Ġintelligence": 3738,
      "çļĦæĸ¹æ³ķ": 3739,
      "è¿Ļæĺ¯": 3740,
      "Ġ`": 3741,
      "Ġemissions": 3742,
      "Ġå°Ĩ": 3743,
      "Ġmeaning": 3744,
      "Ġstyle": 3745,
      "åİŁåĽł": 3746,
      "Ġstrugg": 3747,
      "çļĦç¾İ": 3748,
      "iful": 3749,
      "dition": 3750,
      "éĥ½æľī": 3751,
      "ç©ºæ°Ķ": 3752,
      "å®ĥä»¬çļĦ": 3753,
      "ä¼ĺåĮĸ": 3754,
      "Ġinflu": 3755,
      "Ġdetails": 3756,
      "åŁºäºİ": 3757,
      "Ġtransparency": 3758,
      "Ġmess": 3759,
      "ĠCl": 3760,
      "Ġgame": 3761,
      "pri": 3762,
      "è¶ĭåĬ¿": 3763,
      "å½Ĵ": 3764,
      "ç¿»è¯ĳ": 3765,
      "æķ£": 3766,
      "By": 3767,
      "éŃ": 3768,
      "ĠAmeric": 3769,
      "Ġproduction": 3770,
      "Ġincorpor": 3771,
      "æĻļ": 3772,
      "Ġinvolve": 3773,
      "Ġhot": 3774,
      "æĻ®": 3775,
      "Ġflow": 3776,
      "by": 3777,
      "Ġemerg": 3778,
      "åº§": 3779,
      "Ġidea": 3780,
      "åİĭåĬĽ": 3781,
      "éĿĴ": 3782,
      "oms": 3783,
      "èģĮä¸ļ": 3784,
      "Ġreport": 3785,
      "Ġpap": 3786,
      "Ġtherap": 3787,
      "Ġsal": 3788,
      "åıĤä¸İ": 3789,
      "æĸĩåŃ¦": 3790,
      "æĲŃéħį": 3791,
      "oot": 3792,
      "Ġcr": 3793,
      "Ġprocesses": 3794,
      "gin": 3795,
      "å¹³åı°": 3796,
      "å¯Ł": 3797,
      "Ġpromoting": 3798,
      "æļĸ": 3799,
      "akehold": 3800,
      "ç»§": 3801,
      "iver": 3802,
      "æ¦Ĥ": 3803,
      "Ġmodels": 3804,
      "Ġdra": 3805,
      "èĸ": 3806,
      "Ġgroup": 3807,
      "è¶³å¤Ł": 3808,
      "Ġgreen": 3809,
      "Ġhealthy": 3810,
      "Ġcomfort": 3811,
      "Ġadditional": 3812,
      "ä¸Ģæ¬¡": 3813,
      "é¤Ĳåİħ": 3814,
      "Ġmaterials": 3815,
      ",\"": 3816,
      "Ġmanage": 3817,
      "çļĦæ¯": 3818,
      "ä¼¤": 3819,
      "åıĬæĹ¶": 3820,
      "Ġglo": 3821,
      "Ġstat": 3822,
      "å¿«éĢŁ": 3823,
      "Ġmonitoring": 3824,
      "aily": 3825,
      "rand": 3826,
      "oice": 3827,
      "resh": 3828,
      "ç»Ħç»ĩ": 3829,
      "Ġunder": 3830,
      "Ġnecessary": 3831,
      "Ġhelpful": 3832,
      "ĠCol": 3833,
      "é»ĳæ´ŀ": 3834,
      "åģļåĩº": 3835,
      "Ġcourse": 3836,
      "Ġmat": 3837,
      "Ġleg": 3838,
      "Ġface": 3839,
      "ä»¤": 3840,
      "èī¯å¥½çļĦ": 3841,
      "ock": 3842,
      "åĮ»çĸĹ": 3843,
      "çĽĸ": 3844,
      "idence": 3845,
      "Ġprogress": 3846,
      "Ġassociated": 3847,
      "åľĨ": 3848,
      "Ġeveryone": 3849,
      "ĠEng": 3850,
      "ç¼ĵ": 3851,
      "word": 3852,
      "èĵĿ": 3853,
      "å¤©æ°Ķ": 3854,
      "Ġactions": 3855,
      "ems": 3856,
      "ĠPl": 3857,
      "å®Ļ": 3858,
      "ush": 3859,
      "é¡¾": 3860,
      "Ġcosts": 3861,
      "ator": 3862,
      "ç©¿": 3863,
      "Ġamounts": 3864,
      "èĶ¬èıľ": 3865,
      "Ġmanner": 3866,
      "Ġconsequ": 3867,
      "æ°ĶåĢĻ": 3868,
      "Ġinsights": 3869,
      "being": 3870,
      "atory": 3871,
      "ener": 3872,
      "lex": 3873,
      "Ġmeans": 3874,
      "Ġcollaboration": 3875,
      "Ġperspect": 3876,
      "orm": 3877,
      "priate": 3878,
      "å°Ĭéĩį": 3879,
      "Ġtarget": 3880,
      "è®°å½ķ": 3881,
      "åĢĴ": 3882,
      "Ġrenewable": 3883,
      "æĦ¿": 3884,
      "èĥ½æºĲ": 3885,
      "Ġinput": 3886,
      "å®ĩå®Ļ": 3887,
      "ape": 3888,
      "Ġadjust": 3889,
      "eries": 3890,
      "Ġdire": 3891,
      "ä¾Ŀ": 3892,
      "ustr": 3893,
      "fect": 3894,
      "Ġdue": 3895,
      "Ġbeautiful": 3896,
      "reci": 3897,
      "çĮ®": 3898,
      "èĥĮæĻ¯": 3899,
      "èĤ¡": 3900,
      "Ġdam": 3901,
      "ik": 3902,
      "Ġadvanced": 3903,
      "çĽ¸å¯¹": 3904,
      "åĲįç§°": 3905,
      "Ġshort": 3906,
      "Ġobject": 3907,
      "è¿ĻéĩĮ": 3908,
      "éĢłæĪĲ": 3909,
      "èĲ¥éĶĢ": 3910,
      "âĢĿ,": 3911,
      "çļĦæĥħæĦŁ": 3912,
      "ç¥¨": 3913,
      "Ġcountries": 3914,
      "ining": 3915,
      "istic": 3916,
      "Ġplans": 3917,
      "è´£ä»»": 3918,
      "Ġstakehold": 3919,
      "Ġassess": 3920,
      "æĢĿèĢĥ": 3921,
      "ech": 3922,
      "21": 3923,
      "æĪĲåĳĺ": 3924,
      "Ġdaily": 3925,
      "Ġcomput": 3926,
      "çļĦæĥħåĨµ": 3927,
      "æıĲåĩº": 3928,
      "ĠâĢľ": 3929,
      "åªĴ": 3930,
      "ä¸Ńå¿ĥ": 3931,
      "ished": 3932,
      "the": 3933,
      "ĠSe": 3934,
      "onomous": 3935,
      "ern": 3936,
      "ç»´æĬ¤": 3937,
      "ames": 3938,
      "Ġprioritize": 3939,
      "çº¸": 3940,
      "èĤ¥": 3941,
      "Ġtemper": 3942,
      "æ¸ħæ´ģ": 3943,
      "æ±¡": 3944,
      "use": 3945,
      "Ġminim": 3946,
      "æĺ¯åľ¨": 3947,
      "å¤§å°ı": 3948,
      "åĵªäºĽ": 3949,
      "Ġappreci": 3950,
      "reng": 3951,
      "Ġregulations": 3952,
      "ĠZ": 3953,
      "éĶĻè¯¯": 3954,
      "rans": 3955,
      "èĢĮä¸Ķ": 3956,
      "èĪ¬": 3957,
      "èĳ±": 3958,
      "èĨ": 3959,
      "æ°´å¹³": 3960,
      "è´Ńçī©": 3961,
      "åŃĹç¬¦ä¸²": 3962,
      "å¯¹æĸ¹": 3963,
      "Ġhim": 3964,
      "Ġconsequences": 3965,
      "å·´": 3966,
      "é¼ĵåĬ±": 3967,
      "Ġfil": 3968,
      "äººåĳĺ": 3969,
      "è·Ŀç¦»": 3970,
      "ĠWhen": 3971,
      "çļĦæ°´": 3972,
      "çī©çĲĨ": 3973,
      "åĲĮæĹ¶ä¹Ł": 3974,
      "åľ¨è¿Ļä¸ª": 3975,
      "åħ¶æ¬¡": 3976,
      "æ¶²": 3977,
      "çĶ·": 3978,
      "ival": 3979,
      "åı¯ä»¥è®©": 3980,
      "æĥ¯": 3981,
      "Ġadvance": 3982,
      "Ġveh": 3983,
      "å¦ĤæŀľæĤ¨": 3984,
      "Ġestab": 3985,
      "ript": 3986,
      "ç«¯": 3987,
      "ä¸įä¼ļ": 3988,
      "Ġtransparent": 3989,
      "æķ°éĩı": 3990,
      "çĽĺ": 3991,
      "Ġspeak": 3992,
      "Ġpark": 3993,
      "Ġstakeholders": 3994,
      "éº": 3995,
      "Ġevent": 3996,
      "çļĦæķ°æį®": 3997,
      "èĩªåĬ¨": 3998,
      "ç»ĨèĬĤ": 3999,
      "è¯Ħä¼°": 4000,
      "æ¶¦": 4001,
      "Ġpreferences": 4002,
      "Ġveget": 4003,
      "Ġgl": 4004,
      "æįŁ": 4005,
      "equ": 4006,
      "Ġpain": 4007,
      "Ġtraffic": 4008,
      "ogra": 4009,
      "Ġoce": 4010,
      "ä¹ĺ": 4011,
      "Ġanother": 4012,
      "ext": 4013,
      "å¤ļå°ĳ": 4014,
      "Ġagainst": 4015,
      "ç»ıåİĨ": 4016,
      "è®¡ç®Ĺæľº": 4017,
      "èĢĲ": 4018,
      "ĠPre": 4019,
      "è½¯ä»¶": 4020,
      "Ġplants": 4021,
      "çĽ¸äºĴ": 4022,
      "é¢ĳ": 4023,
      "\\_": 4024,
      "Ġsame": 4025,
      "rug": 4026,
      "Ġvalu": 4027,
      "Ġocc": 4028,
      "çļĦç¤": 4029,
      "Ġsustainability": 4030,
      "ĠShe": 4031,
      "ote": 4032,
      "Ġdig": 4033,
      "de": 4034,
      "NA": 4035,
      "Ġcrucial": 4036,
      "æī§": 4037,
      "å±Ģ": 4038,
      "æĭŁ": 4039,
      "æĭĮ": 4040,
      "Ġnon": 4041,
      "Ġengaging": 4042,
      "Ġintern": 4043,
      "LP": 4044,
      "æ¸©åº¦": 4045,
      "æł¸": 4046,
      "æĬ¥åĳĬ": 4047,
      "æĿ¥è¶Ĭ": 4048,
      "hood": 4049,
      "ä¸īä¸ª": 4050,
      "å¦Ĥä¸ĭ": 4051,
      "çī©ä½ĵ": 4052,
      "force": 4053,
      "Ġneeded": 4054,
      "Ġimages": 4055,
      "Ġbuilding": 4056,
      "ĠæĪĳ": 4057,
      "icious": 4058,
      "è¶ĬæĿ¥è¶Ĭ": 4059,
      "æĶ¾åħ¥": 4060,
      "go": 4061,
      "éĻįä½İ": 4062,
      "å½ĵåľ°": 4063,
      "æ¶Īè´¹èĢħ": 4064,
      "ç£": 4065,
      "iversity": 4066,
      "é¢Ħç®Ĺ": 4067,
      "icle": 4068,
      "æ··åĲĪ": 4069,
      "Ġparticip": 4070,
      "Ġdishes": 4071,
      "Ġthroughout": 4072,
      "Ġwithin": 4073,
      "åı³": 4074,
      "Ġphot": 4075,
      "é«ĺçļĦ": 4076,
      "Ġtrust": 4077,
      "æĦıè¯Ĩ": 4078,
      "ä»¥ç¡®ä¿Ŀ": 4079,
      "çĬ¶æĢģ": 4080,
      "Ġautomation": 4081,
      "11": 4082,
      "Ġpost": 4083,
      "æīĭæľº": 4084,
      "works": 4085,
      "éĢı": 4086,
      "åºĵ": 4087,
      "Ġwind": 4088,
      "Ġ==": 4089,
      "Ġprocessing": 4090,
      "èĮĥåĽ´": 4091,
      "æĦıä¹ī": 4092,
      "è¿½æ±Ĥ": 4093,
      "Ã©": 4094,
      "å¾Ħ": 4095,
      "éĿł": 4096,
      "ä¸ĸ": 4097,
      "èĻ½": 4098,
      "ç«ŀäºī": 4099,
      "Ġappropriate": 4100,
      "æĽ´å¥½çļĦ": 4101,
      "Ġcharacter": 4102,
      "ç§ĺ": 4103,
      "cl": 4104,
      "itude": 4105,
      "Ġteac": 4106,
      "leep": 4107,
      "ĠDevelop": 4108,
      "ince": 4109,
      "å·¦": 4110,
      "ground": 4111,
      "è¡Įä¸ļ": 4112,
      "éĴĪå¯¹": 4113,
      "å¿ħè¦ģ": 4114,
      "Ġdeterm": 4115,
      "----------------": 4116,
      "Ġstreng": 4117,
      "do": 4118,
      "Ġchallenging": 4119,
      "ork": 4120,
      "Ġanx": 4121,
      "èī²çļĦ": 4122,
      "Ġhard": 4123,
      "æĺİç¡®": 4124,
      "åĪĨäº«": 4125,
      "æĶ¹åıĺ": 4126,
      "ä½³": 4127,
      "åıªæľī": 4128,
      "å±ķç¤º": 4129,
      "Ġcamp": 4130,
      "çº³": 4131,
      "aj": 4132,
      "etic": 4133,
      "ument": 4134,
      "ä½łåı¯ä»¥": 4135,
      "Ġpollut": 4136,
      "Ġhig": 4137,
      "pping": 4138,
      "ead": 4139,
      "çĦ¶èĢĮ": 4140,
      "ç¬¬äºĮ": 4141,
      "é¸Ł": 4142,
      "çī©åĵģ": 4143,
      "ä¸¾": 4144,
      "Ġencourage": 4145,
      "pecial": 4146,
      "Ġacross": 4147,
      "elves": 4148,
      "äºĭä»¶": 4149,
      "cle": 4150,
      "æ©": 4151,
      "åªĴä½ĵ": 4152,
      "ners": 4153,
      "Ġcal": 4154,
      "èĻ½çĦ¶": 4155,
      "åĽº": 4156,
      "ä¹łæĥ¯": 4157,
      "Ġsafe": 4158,
      "èĥ½éĩı": 4159,
      "istics": 4160,
      "ä¹ĭåīį": 4161,
      "Ġissue": 4162,
      "å¤ļä¸ª": 4163,
      "åĨ³çŃĸ": 4164,
      "è¾¾åĪ°": 4165,
      "æĹ©": 4166,
      "ä¸įåı¯": 4167,
      "ä¸ĢçĽ´": 4168,
      "å·¨": 4169,
      "ĠNew": 4170,
      "æĦŁè°¢": 4171,
      "ä¸Ģæ®µ": 4172,
      "Ġmachines": 4173,
      "å°Ĩåħ¶": 4174,
      "ç»§ç»Ń": 4175,
      "Ġword": 4176,
      "çī¹åĪ«": 4177,
      "Ġagriculture": 4178,
      "æĢİ": 4179,
      "éĢĲæ¸Ĳ": 4180,
      "éĵ¾": 4181,
      "Ġkind": 4182,
      "è¯¾": 4183,
      "å¢Ļ": 4184,
      "è°¢è°¢": 4185,
      "Ġalgorithm": 4186,
      "è£ħé¥°": 4187,
      "Ġalong": 4188,
      "Ġeasy": 4189,
      "äºĳ": 4190,
      "è§£åĨ³æĸ¹æ¡Ī": 4191,
      "Ġawareness": 4192,
      "'ve": 4193,
      "æĸ¹åĲĳ": 4194,
      "Ġnever": 4195,
      "Ġquickly": 4196,
      "Ġrespect": 4197,
      "çļĦæĻ": 4198,
      "Ġamong": 4199,
      "Ġaccountability": 4200,
      "Ġlaw": 4201,
      "ening": 4202,
      "Ġdefin": 4203,
      "Ġsurround": 4204,
      "éĵģ": 4205,
      "Ġpowerful": 4206,
      "Ġcause": 4207,
      "An": 4208,
      "æ¥": 4209,
      "æİĮæı¡": 4210,
      "è¿ĺæĺ¯": 4211,
      "Ġcreative": 4212,
      "è¡Ģ": 4213,
      "Ġlocated": 4214,
      "unning": 4215,
      "åľ°åĮº": 4216,
      "éĿ¢ç§¯": 4217,
      "éĽ¨": 4218,
      "Ġnear": 4219,
      "Ġiniti": 4220,
      "ression": 4221,
      "ä¸ĭæĿ¥": 4222,
      "25": 4223,
      "é©¶": 4224,
      "¾çĹħ": 4225,
      "ables": 4226,
      "æľīè¶£": 4227,
      "å¾ªçİ¯": 4228,
      "çŃĶæ¡Ī": 4229,
      "çł´": 4230,
      "ication": 4231,
      "éĻ¢": 4232,
      "æ²»çĸĹ": 4233,
      "Ġaddition": 4234,
      "äºĭæĥħ": 4235,
      "Ġbecause": 4236,
      "åıĪ": 4237,
      "èĤĮ": 4238,
      "çºª": 4239,
      "side": 4240,
      "æĭħ": 4241,
      "æ¹¿": 4242,
      "åįĬ": 4243,
      "é¡º": 4244,
      "ĠAnd": 4245,
      "Ġrestaurant": 4246,
      "Ġvide": 4247,
      "Ġproblem": 4248,
      "azing": 4249,
      "Ġmembers": 4250,
      "Ġnut": 4251,
      "Ġcou": 4252,
      "ĠĠĠĠĠĠ": 4253,
      "æµª": 4254,
      "Ġè¿Ļ": 4255,
      "Ġhelping": 4256,
      "ĠIs": 4257,
      "æıĲåįĩ": 4258,
      "Ġsho": 4259,
      "Ġrelev": 4260,
      "Ġarg": 4261,
      "illed": 4262,
      "Ġbalance": 4263,
      "æĺ¯ä»Ģä¹Ī": 4264,
      "åĬĽéĩı": 4265,
      "ired": 4266,
      "å¤ľ": 4267,
      "åı¯æĮģç»Ń": 4268,
      "Ġperfect": 4269,
      "**": 4270,
      "ification": 4271,
      "æ¶ī": 4272,
      "Ġwildlife": 4273,
      "ane": 4274,
      "Ġrelated": 4275,
      "å®¤åĨħ": 4276,
      "åºľ": 4277,
      "äº«åıĹ": 4278,
      "ours": 4279,
      "è·ĳ": 4280,
      "åķĨä¸ļ": 4281,
      "aching": 4282,
      "Ġsun": 4283,
      "Ġrecognition": 4284,
      "elt": 4285,
      "Ġorder": 4286,
      "å¹³åĿĩ": 4287,
      "ging": 4288,
      "ä¸´": 4289,
      "çĤ¼": 4290,
      "Ġgoing": 4291,
      "åĳ¼åĲ¸": 4292,
      "Ġsoftware": 4293,
      "Ġremot": 4294,
      "èĳĹåĲį": 4295,
      "å¹¸ç¦ı": 4296,
      "Ġenhance": 4297,
      "èĻļ": 4298,
      "Ġnow": 4299,
      "Ġthreat": 4300,
      "Ġdest": 4301,
      "åĿĩåĮĢ": 4302,
      "Ġacad": 4303,
      "åºĶå¯¹": 4304,
      "çľĭåĪ°": 4305,
      "cast": 4306,
      "],": 4307,
      "è¾Ĩ": 4308,
      "ificial": 4309,
      "Ġvery": 4310,
      "ook": 4311,
      "åĮºåŁŁ": 4312,
      "¹ģ": 4313,
      "æĪ¿éĹ´": 4314,
      "æıĲä¾ĽäºĨ": 4315,
      "Ġmotiv": 4316,
      "Ġaccessible": 4317,
      "Ġhy": 4318,
      "åĨ³å®ļ": 4319,
      "å®Ī": 4320,
      "Ġflo": 4321,
      "ug": 4322,
      "Ġinformed": 4323,
      "åĵģè´¨": 4324,
      "çļĦçŁ": 4325,
      "aves": 4326,
      "arr": 4327,
      "ĠWith": 4328,
      "let": 4329,
      "è§ĤçĤ¹": 4330,
      "enge": 4331,
      "è¡ĮåĬ¨": 4332,
      "friend": 4333,
      "ç³ķ": 4334,
      "Ġfurther": 4335,
      "ĠEns": 4336,
      "ç§ģ": 4337,
      "Ġado": 4338,
      "Ġclean": 4339,
      "çĽ¸åºĶ": 4340,
      "Ġfre": 4341,
      "pecially": 4342,
      "èĹ": 4343,
      "Ġcapt": 4344,
      "çļĦçľ": 4345,
      "Ġsomeone": 4346,
      "Ġcell": 4347,
      "æĶ¾åľ¨": 4348,
      "æ¬¢è¿İ": 4349,
      "Ġdevices": 4350,
      "çļĦæĸ¹å¼ı": 4351,
      "Ġjobs": 4352,
      "augh": 4353,
      "æľīäºĽ": 4354,
      "not": 4355,
      "åħ¬åħ±": 4356,
      "gest": 4357,
      "çļĦçĶŁæ´»": 4358,
      "çľ¼": 4359,
      "çļĦä¿¡æģ¯": 4360,
      "ĠCons": 4361,
      "æİĴåºı": 4362,
      "Ġbenefit": 4363,
      "rect": 4364,
      "å¤ı": 4365,
      "unte": 4366,
      "ç¬¦åĲĪ": 4367,
      "ä¸Ģä½į": 4368,
      "åĨħéĥ¨": 4369,
      "Ġlooking": 4370,
      "ding": 4371,
      "æĬĺ": 4372,
      "è¾ĳ": 4373,
      "è¿Ļä¸ªéĹ®é¢ĺ": 4374,
      "Ġespecially": 4375,
      "çľł": 4376,
      "âĢĿãĢĤ": 4377,
      "å¥ı": 4378,
      "ray": 4379,
      "è¿ĺåı¯ä»¥": 4380,
      "åĪĽä½ľ": 4381,
      "coming": 4382,
      "Ġmultiple": 4383,
      "éļĲ": 4384,
      "æ³¡": 4385,
      "æłĩåĩĨ": 4386,
      "Ġmil": 4387,
      "éľĢè¦ģæ³¨æĦı": 4388,
      "Ġanxiety": 4389,
      "æĶ¹è¿Ľ": 4390,
      "å±ĭ": 4391,
      "æ±¡æŁĵ": 4392,
      "ç¼ĸç¨ĭ": 4393,
      "è´¹çĶ¨": 4394,
      "Ġevalu": 4395,
      "imately": 4396,
      "Ġliter": 4397,
      "ograph": 4398,
      "Ġsearch": 4399,
      "16": 4400,
      "enced": 4401,
      "Ġmethods": 4402,
      "çĥĪ": 4403,
      "æ¨¡å¼ı": 4404,
      "çĬ¶åĨµ": 4405,
      "æĶ¹åĸĦ": 4406,
      "å¤ļæł·": 4407,
      "cer": 4408,
      "å¥ĸ": 4409,
      "Ġsatis": 4410,
      "Ġwebsite": 4411,
      "åĬŀ": 4412,
      "åģ¥èº«": 4413,
      "Ġglobal": 4414,
      "Ġask": 4415,
      "Ġplatforms": 4416,
      "Ġdiseases": 4417,
      "ĠâĢ": 4418,
      "çİ°è±¡": 4419,
      "tics": 4420,
      "æ±ģ": 4421,
      "åĪ¤æĸŃ": 4422,
      "Ġconvers": 4423,
      "Ġrelationship": 4424,
      "è®¾ç½®": 4425,
      "æ³ķå¾ĭ": 4426,
      "Ġmindful": 4427,
      "é¢Ħæµĭ": 4428,
      "overy": 4429,
      "åģľ": 4430,
      "çĶµè§Ĩ": 4431,
      "è§ĦåĪĻ": 4432,
      "aken": 4433,
      "Ġimplementing": 4434,
      "ising": 4435,
      "åıĤåĬł": 4436,
      "æĥħç»ª": 4437,
      "Ġprovided": 4438,
      "æ·±åħ¥": 4439,
      "Ġprogrammed": 4440,
      "Ġrelevant": 4441,
      "çļĦçĥ": 4442,
      "çĸ¾çĹħ": 4443,
      "åĮ»çĶŁ": 4444,
      "åĪĽå»º": 4445,
      "Ġgenerate": 4446,
      "æĶ¶åħ¥": 4447,
      "ä¼ĳ": 4448,
      "izes": 4449,
      "Ġtransform": 4450,
      "éģµ": 4451,
      "astic": 4452,
      "åĳĪ": 4453,
      "æ¯ıä¸ªäºº": 4454,
      "è¿Ķ": 4455,
      "iet": 4456,
      "Ġvoice": 4457,
      "éĢĶ": 4458,
      "æĶ¾æĿ¾": 4459,
      "åį´": 4460,
      "èĥľ": 4461,
      "Ġstructure": 4462,
      "æĹ¶å°ļ": 4463,
      "ĠQ": 4464,
      "Ġelse": 4465,
      "duc": 4466,
      "Ġemp": 4467,
      "èģļ": 4468,
      "è´§": 4469,
      "aches": 4470,
      "ç§Ģ": 4471,
      "anks": 4472,
      "Ġnight": 4473,
      "Ġprofessionals": 4474,
      "Ġbas": 4475,
      "è´µ": 4476,
      "ec": 4477,
      "Ġdiversity": 4478,
      "ites": 4479,
      "dr": 4480,
      "åĽ°éļ¾": 4481,
      "ĥåľ": 4482,
      "åŀĥåľ": 4483,
      "åŀĥåľ¾": 4484,
      "Ġname": 4485,
      "Ġdrug": 4486,
      "ç¢³": 4487,
      "åĮĸçļĦ": 4488,
      "aid": 4489,
      "æľĢå¤§": 4490,
      "æĳĦ": 4491,
      "ç®ĢåįķçļĦ": 4492,
      "Ġwarm": 4493,
      "Ġdone": 4494,
      "Ġfunction": 4495,
      "asc": 4496,
      "å¼ºè°ĥ": 4497,
      "Ġdemand": 4498,
      "Ġvisual": 4499,
      "Ġupd": 4500,
      "æŃ£åľ¨": 4501,
      "Ġsimilar": 4502,
      "éĢĴ": 4503,
      "æ¯Ľ": 4504,
      "éĶ»": 4505,
      "ently": 4506,
      "Ġvaluable": 4507,
      "Ġdisaster": 4508,
      "ä¸ĢèĪ¬": 4509,
      "Â°": 4510,
      "æ´²": 4511,
      "ĠReg": 4512,
      "Ġdiscrimination": 4513,
      "åĨĻä¸Ģç¯ĩ": 4514,
      "Ġgovernment": 4515,
      "Ġå¥½çļĦ": 4516,
      "500": 4517,
      "lying": 4518,
      "Ġprev": 4519,
      "Ġprepare": 4520,
      "Ġproblems": 4521,
      "è·³": 4522,
      "Ġprom": 4523,
      "åĨ²": 4524,
      "å®īè£ħ": 4525,
      "éĶ»çĤ¼": 4526,
      "æµĵ": 4527,
      "è¹": 4528,
      "åºĶçĶ¨ç¨ĭåºı": 4529,
      "Ġcompet": 4530,
      "ng": 4531,
      "åĪĨåĪ«": 4532,
      "ological": 4533,
      "å®¡": 4534,
      "Ġtransl": 4535,
      "Ġdirect": 4536,
      "åīĤ": 4537,
      "Ġsuggestions": 4538,
      "Ġpaper": 4539,
      "Ġrecognize": 4540,
      "))": 4541,
      "Ġmitigate": 4542,
      "ton": 4543,
      "è®¨è®º": 4544,
      "äºĴåĬ¨": 4545,
      "ĠEar": 4546,
      "Ġamazing": 4547,
      "cre": 4548,
      "é¦Ī": 4549,
      "Ġinvolved": 4550,
      "face": 4551,
      "æľīåħ³": 4552,
      "Ġexce": 4553,
      "Ġproductivity": 4554,
      "èŃ": 4555,
      "é¦Ĩ": 4556,
      "Ġsounds": 4557,
      "Ġidentifying": 4558,
      "é¾Ļ": 4559,
      "Ġfit": 4560,
      "Ġcontribute": 4561,
      "ths": 4562,
      "ele": 4563,
      "ified": 4564,
      "friendly": 4565,
      "iveness": 4566,
      "ĠX": 4567,
      "itely": 4568,
      "Ġled": 4569,
      "åĿı": 4570,
      "Ġ}": 4571,
      "Ġhistor": 4572,
      "Ġdat": 4573,
      "Ġjourney": 4574,
      "Ġselect": 4575,
      "æ¼«": 4576,
      "Ġconduct": 4577,
      "è¿Ľä¸ĢæŃ¥": 4578,
      "ç»ĻæĪĳ": 4579,
      "Ġlif": 4580,
      "è£ħä¿®": 4581,
      "ä¸ºä»Ģä¹Ī": 4582,
      "äº¬": 4583,
      "Ġnav": 4584,
      "Ġwhole": 4585,
      "ç¹ģ": 4586,
      "åĨľ": 4587,
      "æĶ»": 4588,
      "Ġbreat": 4589,
      "Ġmiss": 4590,
      "é¾Ħ": 4591,
      "tt": 4592,
      "sw": 4593,
      "Ġbar": 4594,
      "è¯·éĹ®": 4595,
      "èģĶç½ĳ": 4596,
      "Ġattract": 4597,
      "æĤ¨åı¯ä»¥": 4598,
      "One": 4599,
      "åħħåĪĨ": 4600,
      "ring": 4601,
      "Ġå½ĵçĦ¶": 4602,
      "ream": 4603,
      "Ġevol": 4604,
      "Ġsn": 4605,
      "ĠEm": 4606,
      "mosp": 4607,
      "Ġchoose": 4608,
      "Ġarr": 4609,
      "view": 4610,
      "Ġsleep": 4611,
      "ended": 4612,
      "æŀ¶": 4613,
      "Ġfresh": 4614,
      "Ġvehicles": 4615,
      "Ġorganization": 4616,
      "è¿Ļæ®µ": 4617,
      "æ±¤": 4618,
      "ĠInt": 4619,
      "Ġcontext": 4620,
      "åı¦å¤ĸ": 4621,
      "Ġocean": 4622,
      "æĦŁåıĹ": 4623,
      "Ġpollution": 4624,
      "urb": 4625,
      "æī§è¡Į": 4626,
      "ersonal": 4627,
      "ĠHealth": 4628,
      "ä¼ĺçĤ¹": 4629,
      "Ġattention": 4630,
      "æľīçĿĢ": 4631,
      "é£ŁæĿĲ": 4632,
      "Ġerr": 4633,
      "çļĦæĿ¥": 4634,
      "çļĦçĪ": 4635,
      "èŃ¦": 4636,
      "è·Ł": 4637,
      "æĹħè¡Į": 4638,
      "èĴľ": 4639,
      "çļĦæĢĿ": 4640,
      "Ġchatbot": 4641,
      "çļĦéľĢæ±Ĥ": 4642,
      "çķ¥": 4643,
      "Ġfeeling": 4644,
      "Ġimplemented": 4645,
      "ç¤¾åĮº": 4646,
      "çļĦå»ºè®®": 4647,
      "æĲħ": 4648,
      "éĹ»": 4649,
      "åıįé¦Ī": 4650,
      "çĽ´æİ¥": 4651,
      "æĺ¥": 4652,
      "itable": 4653,
      "æĪĳä¼ļ": 4654,
      "åį±": 4655,
      "èī¯å¥½": 4656,
      "Ġliving": 4657,
      "åıĺéĩı": 4658,
      "ĠBut": 4659,
      "Ġcomplete": 4660,
      "Ġtrends": 4661,
      "Ġmakes": 4662,
      "ä»Ĭå¤©": 4663,
      "Ġdistribut": 4664,
      "Ġcommit": 4665,
      "\":": 4666,
      "Ġatmosp": 4667,
      "ä¼´": 4668,
      "Ġsensors": 4669,
      "Ġsw": 4670,
      "æĹłè®º": 4671,
      "omen": 4672,
      "æĶ¿åºľ": 4673,
      "Ġchallenge": 4674,
      "Ġturn": 4675,
      "çĲĨè®º": 4676,
      "Ġwrite": 4677,
      "par": 4678,
      "ç»ıåħ¸": 4679,
      "emember": 4680,
      "é¥Ń": 4681,
      "æĸ¹ä¾¿": 4682,
      "Ġcu": 4683,
      "Ġvalue": 4684,
      "Ġfund": 4685,
      "pose": 4686,
      "è°ĥæŁ¥": 4687,
      "çĿ¡": 4688,
      "Ġcommunicate": 4689,
      "Ġdisease": 4690,
      "Ġresearc": 4691,
      "Ġlack": 4692,
      "arning": 4693,
      "ĠPark": 4694,
      "çĦ¦": 4695,
      "é«ĺåº¦": 4696,
      "Ġrather": 4697,
      "å®£": 4698,
      "çĪ¶": 4699,
      "éĺ¶": 4700,
      "è®¢": 4701,
      "çĥ§": 4702,
      "Ġhigher": 4703,
      "Ġsummary": 4704,
      "ĠAut": 4705,
      "çļĦæ³": 4706,
      "Ġele": 4707,
      "isms": 4708,
      "Ġreli": 4709,
      "ä¹Łä¼ļ": 4710,
      "fra": 4711,
      "åĳĬè¯īæĪĳ": 4712,
      "æĬ½": 4713,
      "Ġsituations": 4714,
      "Ġmarine": 4715,
      "æĥ³è¦ģ": 4716,
      "inci": 4717,
      "inal": 4718,
      "Ġgain": 4719,
      "Ġdifference": 4720,
      "ĠChat": 4721,
      "æľºåĻ¨äºº": 4722,
      "æµģç¨ĭ": 4723,
      "ç½ĳç«Ļ": 4724,
      "æľ«": 4725,
      "Ġcolor": 4726,
      "Ġaspect": 4727,
      "ç½Ĺ": 4728,
      "ĠEduc": 4729,
      "Ġdeploy": 4730,
      "Ġbeauty": 4731,
      "æĤ£": 4732,
      "ruction": 4733,
      "itut": 4734,
      "æĿŁ": 4735,
      "è®©æĪĳä»¬": 4736,
      "éķ¿åº¦": 4737,
      "ules": 4738,
      "æ¶īåıĬ": 4739,
      "Ġdigital": 4740,
      "Ġexisting": 4741,
      "ĠOr": 4742,
      "\\_\\_": 4743,
      "Ġbackground": 4744,
      "çĹĩ": 4745,
      "æ¯ıå¤©": 4746,
      "python": 4747,
      "Ġ12": 4748,
      "Ġfarmers": 4749,
      "Ġcontinu": 4750,
      "Ġgiven": 4751,
      "å°ıæĹ¶": 4752,
      "Ġmoment": 4753,
      "John": 4754,
      "éĿ¢å¯¹": 4755,
      "Ġintro": 4756,
      "Ġtherapy": 4757,
      ");": 4758,
      "è¿ĶåĽŀ": 4759,
      "Ġz": 4760,
      "å¹¶åľ¨": 4761,
      ")ãĢĤ": 4762,
      "Ġafford": 4763,
      "ä¸Ŀ": 4764,
      "å®½": 4765,
      "ĠÃ": 4766,
      "ĠNational": 4767,
      "èĥ¡": 4768,
      "Ġexercise": 4769,
      "æĲħæĭĮ": 4770,
      "æĶ¯ä»ĺ": 4771,
      "éĺ³åħī": 4772,
      "è¯ļ": 4773,
      "Ġsect": 4774,
      "ĠSu": 4775,
      "å¢ŀéķ¿": 4776,
      "ç¾İä¸½": 4777,
      "Ġwa": 4778,
      "ä»¥ä¸ĭæĺ¯ä¸ĢäºĽ": 4779,
      "Ġill": 4780,
      "èĽĭç³ķ": 4781,
      "æ¸ħæĻ": 4782,
      "etry": 4783,
      "æ¢¦": 4784,
      "ç¾İåĽ½": 4785,
      "ä»į": 4786,
      "oney": 4787,
      "Ġecosystems": 4788,
      "æĮĩå¯¼": 4789,
      "def": 4790,
      "99": 4791,
      "æŁĶ": 4792,
      "pped": 4793,
      "Ġlimit": 4794,
      "çİī": 4795,
      "Ġacademic": 4796,
      "Ġrestaurants": 4797,
      "Ġhead": 4798,
      "ä¿¡ä»»": 4799,
      "asters": 4800,
      "å²ģ": 4801,
      "14": 4802,
      "akers": 4803,
      "æł¡": 4804,
      "As": 4805,
      "é«ĺæķĪ": 4806,
      "yn": 4807,
      "phas": 4808,
      "ç¨ĭåº¦": 4809,
      "è¾£": 4810,
      "ä¸ĬéĿ¢": 4811,
      "å®¶å±ħ": 4812,
      "term": 4813,
      "ç¾İé£Ł": 4814,
      "Ġovers": 4815,
      "å®ĺ": 4816,
      "Ġindic": 4817,
      "ĠYour": 4818,
      "St": 4819,
      "å½¢è±¡": 4820,
      "è´¡": 4821,
      "åºĬ": 4822,
      "ĠSc": 4823,
      "agra": 4824,
      "çľŁæŃ£": 4825,
      "oint": 4826,
      "ids": 4827,
      "arent": 4828,
      "éĵ¶": 4829,
      "èģĬ": 4830,
      "Ġregular": 4831,
      "ä¼ĺç§Ģ": 4832,
      "Ġcolle": 4833,
      "çĸĳ": 4834,
      "Ġsubject": 4835,
      "Ġgreater": 4836,
      "Ġstore": 4837,
      "åŁ¹è®Ń": 4838,
      "Ġimag": 4839,
      "Ġansw": 4840,
      "Ġspot": 4841,
      "ä½Ļ": 4842,
      "åĪĨåŃĲ": 4843,
      "Ġaudience": 4844,
      "pet": 4845,
      "Ġvers": 4846,
      "Ġtrail": 4847,
      "åĭĩ": 4848,
      "erous": 4849,
      "Ġguidance": 4850,
      "Ġspeech": 4851,
      "åĵ²": 4852,
      "æĺ¯çĶ±": 4853,
      "è´¡çĮ®": 4854,
      "åĲĪéĢĤçļĦ": 4855,
      "è®¾æĸ½": 4856,
      "ä»ĸäºº": 4857,
      "ensive": 4858,
      "åĢ¾": 4859,
      "aling": 4860,
      "Ġprojects": 4861,
      "å³": 4862,
      "Ġtakes": 4863,
      "ç»©": 4864,
      "That": 4865,
      "Ġbro": 4866,
      "ived": 4867,
      "Ġ&": 4868,
      "åĿĲ": 4869,
      "placement": 4870,
      "è¿ŀæİ¥": 4871,
      "çļĦç¤¾": 4872,
      "ĠTra": 4873,
      "Ġrelax": 4874,
      "ufact": 4875,
      "éģį": 4876,
      "Ġsurv": 4877,
      "åı£åĳ³": 4878,
      "Ġcreativity": 4879,
      "å¨ģ": 4880,
      "çļĦçł": 4881,
      "Ġbreath": 4882,
      "Ġplaces": 4883,
      "Ġdescrib": 4884,
      "èĭ±è¯Ń": 4885,
      "Ġdamage": 4886,
      "oration": 4887,
      "ä¸ºæĤ¨": 4888,
      "ift": 4889,
      "Ġcase": 4890,
      "å¹´é¾Ħ": 4891,
      "of": 4892,
      "Ġpress": 4893,
      "çĶľ": 4894,
      "éĩİ": 4895,
      "æĹħæ¸¸": 4896,
      "Ġtaken": 4897,
      "ined": 4898,
      "Ġconcept": 4899,
      "æĴŃ": 4900,
      "Ġinteresting": 4901,
      "è·µ": 4902,
      "Ġsea": 4903,
      "60": 4904,
      "Ġfoot": 4905,
      "ĠName": 4906,
      "Ġresearchers": 4907,
      "éĢģ": 4908,
      "Ġwee": 4909,
      "çļĦåħ³éĶ®": 4910,
      "ä¼½": 4911,
      "elebr": 4912,
      "å¡ĳ": 4913,
      "ç»ıå¸¸": 4914,
      "We": 4915,
      "Ġpopulations": 4916,
      "åħ¬å¼ı": 4917,
      "orn": 4918,
      "çĩĥ": 4919,
      "17": 4920,
      "äººçĶŁ": 4921,
      "æİ¥åıĹ": 4922,
      "Ġlocation": 4923,
      "Ġinequ": 4924,
      "Ġintervent": 4925,
      "Ġinterested": 4926,
      "Ġdefinitely": 4927,
      "Ġassistance": 4928,
      "è¿Ļä¸Ģ": 4929,
      "200": 4930,
      "åĲĪåĲĮ": 4931,
      "ä¼ĺåĬ¿": 4932,
      "çļĦå·¥ä½ľ": 4933,
      "Ġmov": 4934,
      "åģı": 4935,
      "åŃĺåĤ¨": 4936,
      "usive": 4937,
      "æĹı": 4938,
      "Ġgas": 4939,
      "Ġinterests": 4940,
      "æ¸ħæĻ°": 4941,
      "Ġgard": 4942,
      "çĸ«": 4943,
      "Ġsay": 4944,
      "å¤«": 4945,
      "ges": 4946,
      "èĲ¨": 4947,
      "ä¸ļåĬ¡": 4948,
      "ä¸ªæĢ§": 4949,
      "åĲ¯": 4950,
      "Ġengagement": 4951,
      "Ġbig": 4952,
      "éľĢè¦ģèĢĥèĻĳ": 4953,
      "Ġprinci": 4954,
      "åĳ¨åĽ´": 4955,
      "Ġopportunity": 4956,
      "çģ¾": 4957,
      "èĹı": 4958,
      "rel": 4959,
      "Ġhappy": 4960,
      "ç¼ºçĤ¹": 4961,
      "åĴĮåħ¶ä»ĸ": 4962,
      "ava": 4963,
      "Ġestablish": 4964,
      "é¸¡èĽĭ": 4965,
      "iking": 4966,
      "ĠTrans": 4967,
      "rastructure": 4968,
      "forest": 4969,
      "èİ·åıĸ": 4970,
      "èĦļ": 4971,
      "inally": 4972,
      "èµı": 4973,
      "Ġdelicious": 4974,
      "Ġresults": 4975,
      "è§Ĥå¯Ł": 4976,
      "Ġlast": 4977,
      "å®ŀè·µ": 4978,
      "Ġpolit": 4979,
      "æĢ§èĥ½": 4980,
      "For": 4981,
      "bi": 4982,
      "çĽ¸ä¿¡": 4983,
      "ffee": 4984,
      "Ġphr": 4985,
      "Ġforest": 4986,
      "elling": 4987,
      "æµģè¡Į": 4988,
      "atic": 4989,
      "å¤§å®¶": 4990,
      "ĠInst": 4991,
      "æķ°åŃ¦": 4992,
      "æī©": 4993,
      "å®Įåħ¨": 4994,
      "å¼ķèµ·": 4995,
      "ese": 4996,
      "è½¬æį¢": 4997,
      "Ġaffected": 4998,
      "Ġrobotics": 4999,
      "ç»¼ä¸Ĭ": 5000,
      "Ġprop": 5001,
      "è®©äºº": 5002,
      "æ²³": 5003,
      "ä¸ŃæľĢ": 5004,
      "Ġautonomous": 5005,
      "Ġhaving": 5006,
      "Ġtrip": 5007,
      "ury": 5008,
      "Ġbiased": 5009,
      "Ġconsiderations": 5010,
      "Ġparticular": 5011,
      "åįł": 5012,
      "æİ¨å¹¿": 5013,
      "Ġinitiatives": 5014,
      "ials": 5015,
      "åĳ³éģĵ": 5016,
      "Ġtreatments": 5017,
      "Ġemphas": 5018,
      "çĭ¬çī¹çļĦ": 5019,
      "Ġlay": 5020,
      "æĶ¿çŃĸ": 5021,
      "æĢİä¹Ī": 5022,
      "ronic": 5023,
      "play": 5024,
      "Ġcook": 5025,
      "è¿Ľåħ¥": 5026,
      "è½®": 5027,
      "Ġvolunte": 5028,
      "Ġrain": 5029,
      "ĠMon": 5030,
      "Ġconsumption": 5031,
      "èĽĭçĻ½": 5032,
      "ĠSoc": 5033,
      "å£¤": 5034,
      "Ġroutine": 5035,
      "Ġimproved": 5036,
      "To": 5037,
      "äººçī©": 5038,
      "Ġgoal": 5039,
      "è¯»èĢħ": 5040,
      "':": 5041,
      "å¹¿åĳĬ": 5042,
      "éķ¿æľŁ": 5043,
      "Ġey": 5044,
      "Ġoutdo": 5045,
      "He": 5046,
      "Ġcuis": 5047,
      "Ġaway": 5048,
      "Ġbooks": 5049,
      "Ġtopic": 5050,
      "å¤§åĪ©": 5051,
      "house": 5052,
      "Ġones": 5053,
      "ç§Ł": 5054,
      "æĪ¿å±ĭ": 5055,
      "ç§»åĬ¨": 5056,
      "Ġdisasters": 5057,
      "ests": 5058,
      "illing": 5059,
      "ç»¿èī²": 5060,
      "åĵ²åŃ¦": 5061,
      "æĪĲåĪĨ": 5062,
      "Ġoccur": 5063,
      "ľä¼½": 5064,
      "åľŁå£¤": 5065,
      "çļĦä¸»è¦ģ": 5066,
      "çİ°å®ŀ": 5067,
      "Ġanimal": 5068,
      "é¢Ĩå¯¼": 5069,
      "Ġviews": 5070,
      "éĤ®": 5071,
      "æ°§åĮĸ": 5072,
      "athy": 5073,
      "éģĵå¾·": 5074,
      "ç¤¾äº¤åªĴä½ĵ": 5075,
      "ĠPersonal": 5076,
      "Ġcountry": 5077,
      "ĽåĽ´": 5078,
      "Ġpurch": 5079,
      "Ġremind": 5080,
      "å¯¸": 5081,
      "Ġrights": 5082,
      "ĠPr": 5083,
      "çļĦçİ¯å¢ĥ": 5084,
      "Ġline": 5085,
      "ibr": 5086,
      "é©¾": 5087,
      "Ġmaj": 5088,
      "Ġovercome": 5089,
      "Ġnext": 5090,
      "æīĢè¿°": 5091,
      "è§Ħå®ļ": 5092,
      "Ġinteractions": 5093,
      "Ġconflic": 5094,
      "Ġwhy": 5095,
      "ç³»åĪĹ": 5096,
      "å°¼": 5097,
      "ibly": 5098,
      "Ġresponses": 5099,
      "çīĽå¥¶": 5100,
      "åŃ¦ä¼ļ": 5101,
      "bol": 5102,
      "ses": 5103,
      "Ġstandards": 5104,
      "ulner": 5105,
      "å¯¹è¯ĿåĨħå®¹": 5106,
      "lished": 5107,
      "çļĦæĢ§": 5108,
      "çĶŁæĢģç³»ç»Ł": 5109,
      "ann": 5110,
      "æĥħåĨµä¸ĭ": 5111,
      "å¯»æ±Ĥ": 5112,
      "Ġhold": 5113,
      "den": 5114,
      "Ġmention": 5115,
      "åįĥ": 5116,
      "ĠMany": 5117,
      "çĽ´åĪ°": 5118,
      "éģĹ": 5119,
      "hel": 5120,
      "Ġbelieve": 5121,
      "aries": 5122,
      "æľīä¸Ģä¸ª": 5123,
      "13": 5124,
      "Ġatmosphere": 5125,
      "Ġmor": 5126,
      "ĠâĢĵ": 5127,
      "æĹ¥æľŁ": 5128,
      "ä¹ħ": 5129,
      "ä½łå¥½": 5130,
      "Ġaddressing": 5131,
      "çļĦåľ°æĸ¹": 5132,
      "ming": 5133,
      "Ġcannot": 5134,
      "Ġmanufact": 5135,
      "Ġpie": 5136,
      "icing": 5137,
      "Ġstudies": 5138,
      "Ġì": 5139,
      "ç¾İåĳ³": 5140,
      "ĠAmerican": 5141,
      "ĠNLP": 5142,
      "Ġaccording": 5143,
      "mselves": 5144,
      "èĦĤ": 5145,
      "èĩªä¿¡": 5146,
      "æīĢéľĢ": 5147,
      "Ġthemselves": 5148,
      "Ġremote": 5149,
      "åŁ¹åħ»": 5150,
      "å®īæİĴ": 5151,
      "ä½łéľĢè¦ģ": 5152,
      "Ġregard": 5153,
      "iring": 5154,
      "è¯ĨåĪ«": 5155,
      "Ġarticle": 5156,
      "æģĴ": 5157,
      "æĢ»çļĦæĿ¥": 5158,
      "Ġalign": 5159,
      "æ±ł": 5160,
      "tenance": 5161,
      "faction": 5162,
      "åĬ¨ä½ľ": 5163,
      "çļĦç©": 5164,
      "ç¼©": 5165,
      "æĢ¥": 5166,
      "Ġ100": 5167,
      "Ġtesting": 5168,
      "åŃĹæ¯į": 5169,
      "å¹´è½»": 5170,
      "åĪ¶éĢł": 5171,
      "Ġswe": 5172,
      "å°º": 5173,
      "hens": 5174,
      "æ°´æŀľ": 5175,
      "Ġinfrastructure": 5176,
      "èī²å½©": 5177,
      "æĢ»çļĦæĿ¥è¯´": 5178,
      "æľīä»Ģä¹Ī": 5179,
      "ĊĠĠ": 5180,
      "è½¦è¾Ĩ": 5181,
      "text": 5182,
      "Ġpay": 5183,
      "rop": 5184,
      "Ġcaused": 5185,
      "Ġcorrect": 5186,
      "èĥŀ": 5187,
      "ĠMed": 5188,
      "ç²¾ç¥ŀ": 5189,
      "æ°ĶåĢĻåıĺåĮĸ": 5190,
      "ĠRed": 5191,
      "äºĴèģĶç½ĳ": 5192,
      "Ġengage": 5193,
      "åĪĨä¸º": 5194,
      "ĠData": 5195,
      "Ġfull": 5196,
      "enc": 5197,
      "éĩįæĸ°": 5198,
      "æŃ£ç¡®çļĦ": 5199,
      "çļĦæ°Ķ": 5200,
      "åıĮæĸ¹": 5201,
      "Ġcomes": 5202,
      "åı¤ä»£": 5203,
      "æŁĲäºĽ": 5204,
      "Ġtoday": 5205,
      "åĳĪçİ°": 5206,
      "aged": 5207,
      "æĪĳåı¯ä»¥": 5208,
      "æĹ¥å¸¸": 5209,
      "æ»ĳ": 5210,
      "Ġ\\": 5211,
      "Ġclin": 5212,
      "Ġobs": 5213,
      "Ġartificial": 5214,
      "Ġexcell": 5215,
      "çļĦç¬": 5216,
      "alls": 5217,
      "ĠDes": 5218,
      "Ġproduce": 5219,
      "oss": 5220,
      "è¹Ī": 5221,
      "Ġdraw": 5222,
      "Ġletter": 5223,
      "Ġadvice": 5224,
      "Ġhighly": 5225,
      "çĬ¯": 5226,
      "ç»¼ä¸ĬæīĢè¿°": 5227,
      "æ»¡æĦı": 5228,
      "Ġprinciples": 5229,
      "èĮĦ": 5230,
      "Ġfeelings": 5231,
      "çļĦæ´": 5232,
      "Ġhom": 5233,
      "Ġfail": 5234,
      "Ġcrop": 5235,
      "å§ľ": 5236,
      "Ġquestion": 5237,
      "Ġdisabilities": 5238,
      "èĪŀè¹Ī": 5239,
      "Ġimplications": 5240,
      "ral": 5241,
      "Ġsing": 5242,
      "40": 5243,
      "Ġfamil": 5244,
      "Ġgovernments": 5245,
      "Ġrecord": 5246,
      "å½¢çĬ¶": 5247,
      "Ġbegin": 5248,
      "ises": 5249,
      "çļĦæĥ³": 5250,
      "achine": 5251,
      "è°±": 5252,
      "Ġvulner": 5253,
      "Ġproper": 5254,
      "Ġoversight": 5255,
      "è´ŁéĿ¢": 5256,
      "Ġemail": 5257,
      "Ġnews": 5258,
      "Ġexploring": 5259,
      "Ġfavor": 5260,
      "æ¥¼": 5261,
      "å®ľ": 5262,
      "Ġunivers": 5263,
      "Ġfamous": 5264,
      "å·®å¼Ĥ": 5265,
      "è§£åĨ³éĹ®é¢ĺ": 5266,
      "gn": 5267,
      "Ġmessage": 5268,
      "atitude": 5269,
      "Ġcra": 5270,
      "Ġcover": 5271,
      "æ·±åĪ»": 5272,
      "åı¯ä»¥éĢīæĭ©": 5273,
      "çĶŁæ´»ä¸Ń": 5274,
      "Ġsmart": 5275,
      "ç§įç±»": 5276,
      "onstr": 5277,
      "vey": 5278,
      "çĶ²": 5279,
      "Ġregularly": 5280,
      "Ġthought": 5281,
      "ĠSm": 5282,
      "æĦŁè§ī": 5283,
      "Ġexh": 5284,
      "cure": 5285,
      "ç»ĺ": 5286,
      "è®¤è¯Ĩ": 5287,
      "Ġold": 5288,
      "æĦī": 5289,
      "ç§°ä¸º": 5290,
      "Ġfields": 5291,
      "Ġconsist": 5292,
      "Ġhours": 5293,
      "ãģ": 5294,
      "ç»Ĩèĥŀ": 5295,
      "80": 5296,
      "alking": 5297,
      "è§īå¾Ĺ": 5298,
      "ç»Ŀ": 5299,
      "ĠEnglish": 5300,
      "ä½łä»¬": 5301,
      "Ġsignificantly": 5302,
      "Ġsource": 5303,
      "Ġant": 5304,
      "Ġhandle": 5305,
      "Ġeducational": 5306,
      "Ġtask": 5307,
      ":âĢľ": 5308,
      "æĲľ": 5309,
      "ĠSp": 5310,
      "Ġcalled": 5311,
      "Ġterms": 5312,
      "æ²ī": 5313,
      "Ġwin": 5314,
      "Ġmodern": 5315,
      "duction": 5316,
      "Ġcuisine": 5317,
      "å¥Ĺ": 5318,
      "è§¦": 5319,
      "olutely": 5320,
      "ç«¥": 5321,
      "pite": 5322,
      "Ġfelt": 5323,
      "Ġwond": 5324,
      "Ġcompre": 5325,
      "è¿Ĳè¡Į": 5326,
      "Ġresil": 5327,
      "çĽ¸ä¼¼": 5328,
      "éĩĳèŀį": 5329,
      "çĪ±æĥħ": 5330,
      "ç¬Ķ": 5331,
      "èĪª": 5332,
      "è°Ī": 5333,
      "åĬĽçļĦ": 5334,
      "æľīæīĢ": 5335,
      "æ½ľ": 5336,
      "ulate": 5337,
      "Ġdetection": 5338,
      "å®£ä¼ł": 5339,
      "Ġmatter": 5340,
      "éĩıåŃĲ": 5341,
      "ç»ĵåĲĪ": 5342,
      "Write": 5343,
      "Ġdevelopers": 5344,
      "ç»ıè¿ĩ": 5345,
      "èª": 5346,
      "Ġ---": 5347,
      "äººéĻħ": 5348,
      "çŃ¾": 5349,
      "Ġinnovative": 5350,
      "ãĢĤâĢĿ": 5351,
      "å½¼": 5352,
      "é¥¼": 5353,
      "è¿ĩåº¦": 5354,
      "Ġplanet": 5355,
      "åħ°": 5356,
      "å¸ģ": 5357,
      "æķ¬": 5358,
      "Ġlegal": 5359,
      "Ġlot": 5360,
      "æĪĲä¸ºäºĨ": 5361,
      "iate": 5362,
      "Ġmis": 5363,
      "åģĩè®¾": 5364,
      "çļĦæĸĩç«ł": 5365,
      "ĠCompan": 5366,
      "Ġdoc": 5367,
      "Ġcareful": 5368,
      "Ġever": 5369,
      "æĪĳä»¬å°Ĩ": 5370,
      "ä¾ĭåŃĲ": 5371,
      "ä¹³": 5372,
      "ä½ľèĢħ": 5373,
      "åĲ§": 5374,
      "æļ´": 5375,
      "Ġremember": 5376,
      "çĽ®çļĦ": 5377,
      "Ġput": 5378,
      "å¸¸è§ģçļĦ": 5379,
      "Ġfest": 5380,
      "å»ºè®¾": 5381,
      "å®ŀçĶ¨": 5382,
      "Ġactive": 5383,
      "çªĹ": 5384,
      "outh": 5385,
      "åİŁçĲĨ": 5386,
      "Ġtrying": 5387,
      "è¿·": 5388,
      "çĽ¸åĲĮ": 5389,
      "éħĴåºĹ": 5390,
      "Another": 5391,
      "æľĢä½³": 5392,
      "Ġanalytics": 5393,
      "Ġperpet": 5394,
      "ipment": 5395,
      "Ġå¦Ĥæŀľ": 5396,
      "è§Ĥä¼Ĺ": 5397,
      "Ġcelebr": 5398,
      "Ġheav": 5399,
      "Ġmeditation": 5400,
      "å¤§æ°Ķ": 5401,
      "ä¸įéĶĻ": 5402,
      "And": 5403,
      "Ġwhether": 5404,
      "set": 5405,
      "Ġdemonstr": 5406,
      "ä¸Ģæ¬¾": 5407,
      "æĶ¶éĽĨ": 5408,
      "éĻĲåĪ¶": 5409,
      "Ġing": 5410,
      "Ġrevolution": 5411,
      "çľģ": 5412,
      "Ġscience": 5413,
      "çĽ®åīį": 5414,
      "Ġthinking": 5415,
      "±ä¹Ĳ": 5416,
      "è¯¾ç¨ĭ": 5417,
      "Ġpack": 5418,
      "Ġimage": 5419,
      "loc": 5420,
      "Ġstories": 5421,
      "uck": 5422,
      "Ġsatisfaction": 5423,
      "Ġcollection": 5424,
      "èµŀ": 5425,
      "ho": 5426,
      "éĿ¢ä¸´": 5427,
      "Ġla": 5428,
      "Ġsymbol": 5429,
      "Ġemb": 5430,
      "Ġhabitats": 5431,
      "Ġlower": 5432,
      "Ġcontinues": 5433,
      "éľĩ": 5434,
      "åĵĪ": 5435,
      "ĠTake": 5436,
      "Ġenvironments": 5437,
      "Ġthree": 5438,
      "ĠAcc": 5439,
      "Ġenc": 5440,
      "æĦıåĳ³": 5441,
      "åİ¨": 5442,
      "chan": 5443,
      "ĠHum": 5444,
      "Ġtrue": 5445,
      "åĪĩæĪĲ": 5446,
      "sing": 5447,
      "âĢĶâĢĶ": 5448,
      "åĩºæĿ¥": 5449,
      "Ġinterpre": 5450,
      "Ġregion": 5451,
      "Ġdiagnosis": 5452,
      "éŀ": 5453,
      "Ġdoing": 5454,
      "Ġrun": 5455,
      "Ġcoffee": 5456,
      "Ġmajor": 5457,
      "Ġmindfulness": 5458,
      "Ġaffordable": 5459,
      "çĻ¾": 5460,
      "Ġdetailed": 5461,
      "éĿŀå¸¸éĩįè¦ģçļĦ": 5462,
      "çļĦæ²ŁéĢļ": 5463,
      "çļĦæķħ": 5464,
      "åĢĴåħ¥": 5465,
      "Ġthemes": 5466,
      "Ġnetwork": 5467,
      "ĠUnited": 5468,
      "çļĦæĮĩ": 5469,
      "orts": 5470,
      "åį«çĶŁ": 5471,
      "Ġplanning": 5472,
      "æĥł": 5473,
      "åīª": 5474,
      "ĠProv": 5475,
      "çļĦåºĶçĶ¨": 5476,
      "Ġperi": 5477,
      "Ġaccountable": 5478,
      "çīĻ": 5479,
      "çļĦçģ": 5480,
      "Ġchoice": 5481,
      "ĠComm": 5482,
      "idents": 5483,
      "çļĦå®īåħ¨": 5484,
      "å¹¶ä¸į": 5485,
      "å¤ªéĺ³ç³»": 5486,
      "Ġreceive": 5487,
      "Ġclose": 5488,
      "çļĦæĹ¶åĢĻ": 5489,
      "Ġchanging": 5490,
      "ä»·åĢ¼è§Ĥ": 5491,
      "Ġperpetu": 5492,
      "Ġseason": 5493,
      "Ġmen": 5494,
      "Ġlearned": 5495,
      "Ġsituation": 5496,
      "Ġreplace": 5497,
      "head": 5498,
      "è®©æĪĳ": 5499,
      "åľ¨ä¸Ģèµ·": 5500,
      "çļĦç©º": 5501,
      "éľ²": 5502,
      "Ġenough": 5503,
      "å±ķçİ°": 5504,
      "Ġleaders": 5505,
      "ancing": 5506,
      "Ġtemperature": 5507,
      "22": 5508,
      "åı«": 5509,
      "Ġ30": 5510,
      "æĦıåĳ³çĿĢ": 5511,
      "æ±ĩ": 5512,
      "ĠGovern": 5513,
      "Ġfocused": 5514,
      "uro": 5515,
      "Ġsimple": 5516,
      "Ġhiking": 5517,
      "æ¯Ĵ": 5518,
      "Ġcomprehens": 5519,
      "äºĪ": 5520,
      "Ġcreated": 5521,
      "cond": 5522,
      "é¡µ": 5523,
      "ĠWor": 5524,
      "è¯ģæį®": 5525,
      "Ġworkplace": 5526,
      "Ġcharacters": 5527,
      "çļĦè®¾è®¡": 5528,
      "Ġmechan": 5529,
      "ĠDis": 5530,
      "ç¥ŀç§ĺ": 5531,
      "å·ŀ": 5532,
      "ĠOn": 5533,
      "</": 5534,
      "ç§įæ¤į": 5535,
      "Ġpath": 5536,
      "Ġsolar": 5537,
      "Ġlimited": 5538,
      "çļĦæı": 5539,
      "Ġappreciate": 5540,
      "å¿«ä¹Ĳ": 5541,
      "æĦŁåıĹåĪ°": 5542,
      "èĢĹ": 5543,
      "med": 5544,
      "icine": 5545,
      "Ġnote": 5546,
      "å½ĵåīį": 5547,
      "æĪĳä»¬åºĶè¯¥": 5548,
      "Ġseen": 5549,
      "ä¸ĢåĲį": 5550,
      "å°½åı¯èĥ½": 5551,
      "è¿Ĳç®Ĺ": 5552,
      "è§Ĵåº¦": 5553,
      "Ġequipment": 5554,
      "Ġspread": 5555,
      "è¸": 5556,
      "è®¿": 5557,
      "åı¥è¯Ŀ": 5558,
      "æĮ¥": 5559,
      "Ġpurpose": 5560,
      "è¯·ä½ł": 5561,
      "Your": 5562,
      "arian": 5563,
      "ä»ª": 5564,
      "Ġperspectives": 5565,
      "åĩºäºĨ": 5566,
      "å©ļç¤¼": 5567,
      "Ġexcellent": 5568,
      "ĠEnsuring": 5569,
      "Ġreach": 5570,
      "éĺ¶æ®µ": 5571,
      "ä¿Ŀéļľ": 5572,
      "Ġempathy": 5573,
      "ĠMy": 5574,
      "Ġver": 5575,
      "çĳľä¼½": 5576,
      "abel": 5577,
      "ĠPredict": 5578,
      "Ġmaintenance": 5579,
      "è¯Ħä»·": 5580,
      "Ġult": 5581,
      "åĴ¨": 5582,
      "ox": 5583,
      "åĴ¨è¯¢": 5584,
      "Ġshared": 5585,
      "ina": 5586,
      "list": 5587,
      "Ġoutdoor": 5588,
      "Ġthoughts": 5589,
      "inating": 5590,
      "éĴ±": 5591,
      "Ġframe": 5592,
      "éĺ¿": 5593,
      "åĪ©æ¶¦": 5594,
      "çļĦæİ¨": 5595,
      "åįļ": 5596,
      "Ġrecent": 5597,
      "Ġaltern": 5598,
      "ared": 5599,
      "==": 5600,
      "Ġroad": 5601,
      "äºĭé¡¹": 5602,
      "ged": 5603,
      "ynt": 5604,
      "Ġspend": 5605,
      "ç½ª": 5606,
      "åıĸå¾Ĺ": 5607,
      "é¹": 5608,
      "li": 5609,
      "æĹ¶æľŁ": 5610,
      "ä¸¥éĩį": 5611,
      "å¿Ĩ": 5612,
      "å©´": 5613,
      "æİ¥ä¸ĭæĿ¥": 5614,
      "ĠEarth": 5615,
      "ĠChatbots": 5616,
      "Ġsetting": 5617,
      "ç¥Ŀ": 5618,
      "éĶĢåĶ®é¢Ŀ": 5619,
      "ä¼¦": 5620,
      "Ġreading": 5621,
      "æİ¢è®¨": 5622,
      "aign": 5623,
      "éŀĭ": 5624,
      "Ġyoung": 5625,
      "Ġcareer": 5626,
      "Ġteachers": 5627,
      "çļĦè´¨éĩı": 5628,
      "å±ŀäºİ": 5629,
      "Ġeasier": 5630,
      "Ġscientific": 5631,
      "ç¾İåħĥ": 5632,
      "Ġspir": 5633,
      "åĬ³": 5634,
      "çļĦæĶ¯": 5635,
      "rist": 5636,
      "èµĦäº§": 5637,
      "çĶŁåŃĺ": 5638,
      "èĩ³å°ĳ": 5639,
      "å§¿": 5640,
      "Ġvideo": 5641,
      "Ġaim": 5642,
      "å®Ŀå®Ŀ": 5643,
      "çĪ¶æ¯į": 5644,
      "________________": 5645,
      "alities": 5646,
      "Ġbud": 5647,
      "Ġstreet": 5648,
      "Ġæĺ¯": 5649,
      "æĸ¹ç¨ĭ": 5650,
      "ä¸ĸçºª": 5651,
      "ches": 5652,
      "earch": 5653,
      "æĴ°": 5654,
      "Ġengine": 5655,
      "Ġdisplacement": 5656,
      "ĠRobots": 5657,
      "ervised": 5658,
      "é¡¶": 5659,
      "oud": 5660,
      "Ġwalk": 5661,
      "Ġemergency": 5662,
      "èģĺ": 5663,
      "nal": 5664,
      "Ġdatas": 5665,
      "åĢº": 5666,
      "åĲİçļĦ": 5667,
      "å¾Īå¥½": 5668,
      "Ġmyself": 5669,
      "çļĦæīĭ": 5670,
      "Ġusage": 5671,
      "Ġshown": 5672,
      "æ®Ĭ": 5673,
      "Ġtypically": 5674,
      "uly": 5675,
      "æĸ°éĹ»": 5676,
      "æĽ¿": 5677,
      "Ġorig": 5678,
      "è½»æĿ¾": 5679,
      "æĺ¾ç¤º": 5680,
      "Ġadopt": 5681,
      "Ġparent": 5682,
      "èĤ¡ç¥¨": 5683,
      "aps": 5684,
      "Ġmarketing": 5685,
      "æĢĿæĥ³": 5686,
      "èĻ«": 5687,
      "éĥ¨éĹ¨": 5688,
      "çļĦæķĪ": 5689,
      "Ġcomfortable": 5690,
      "åŃ¦ä¹łåĴĮ": 5691,
      "Ġforecast": 5692,
      "iction": 5693,
      "Ġgetting": 5694,
      "Ġtrees": 5695,
      "aving": 5696,
      "çļĦåŁºç¡Ģ": 5697,
      "ready": 5698,
      "æĸ°é²ľ": 5699,
      "going": 5700,
      "¹é¥": 5701,
      "Ġevidence": 5702,
      "¹é¥ª": 5703,
      "ç§ĭ": 5704,
      "æľīå¾Īå¤ļ": 5705,
      "éĿ¢è¯ķ": 5706,
      "éģĩåĪ°": 5707,
      "ç»Ļå®ļ": 5708,
      "irc": 5709,
      "åı¯ä»¥æł¹æį®": 5710,
      "é©¾é©¶": 5711,
      "å·§åħĭ": 5712,
      "Ġstunning": 5713,
      "çļĦæ¦Ĥ": 5714,
      "æ¡Į": 5715,
      "ĠJohn": 5716,
      "ulation": 5717,
      "åıĤèĢĥ": 5718,
      "Ġflex": 5719,
      "çĦ¦èĻĳ": 5720,
      "ymakers": 5721,
      "Ġforms": 5722,
      "val": 5723,
      "ĠSo": 5724,
      "sh": 5725,
      "co": 5726,
      "æİ¨åĬ¨": 5727,
      "èħ¿": 5728,
      "çī¹æ®Ĭ": 5729,
      "Ġenab": 5730,
      "å°Ĩä¼ļ": 5731,
      "æĶ¯åĩº": 5732,
      "åĿļæĮģ": 5733,
      "çº¢èī²": 5734,
      "Ġoption": 5735,
      "Ġstarted": 5736,
      "ration": 5737,
      "Ġpoetry": 5738,
      "Ġport": 5739,
      "gen": 5740,
      "èªī": 5741,
      "Ġdeliv": 5742,
      "çĶļ": 5743,
      "éĢ»": 5744,
      "éĢīé¡¹": 5745,
      "Ġground": 5746,
      "å½¼æŃ¤": 5747,
      "ana": 5748,
      "çļĦæĹ¥": 5749,
      "åľ¨çº¿": 5750,
      "Ġsecure": 5751,
      "Ġæł¹æį®": 5752,
      "é¥®æĸĻ": 5753,
      "Ġgratitude": 5754,
      "ç¬¬ä¸ī": 5755,
      "Ġsong": 5756,
      "Ġpoints": 5757,
      "Ġalready": 5758,
      "çļĦçĪ±": 5759,
      "Ġpopulation": 5760,
      "ĠTechn": 5761,
      "Ġreality": 5762,
      "çıŃ": 5763,
      "Ġsince": 5764,
      "yond": 5765,
      "bor": 5766,
      "ĠSocial": 5767,
      "æıĲåıĸ": 5768,
      "å·¥ç¨ĭ": 5769,
      "aff": 5770,
      "äº¤æĺĵ": 5771,
      "Ġworth": 5772,
      "å¡«": 5773,
      "å¨±ä¹Ĳ": 5774,
      "Ġdog": 5775,
      "ĠArt": 5776,
      "ç¡¬": 5777,
      "æµ·æ´ĭ": 5778,
      "åĨĴ": 5779,
      "çīĪ": 5780,
      "Ġprogramming": 5781,
      "ĠAss": 5782,
      "ĠMachine": 5783,
      "åĢ¼å¾Ĺ": 5784,
      "è¯·è¾ĵåħ¥": 5785,
      "å£°éŁ³": 5786,
      "Ġexercises": 5787,
      "åħīçº¿": 5788,
      "Ġfeature": 5789,
      "æ³ķåĴĮ": 5790,
      "è¿ĽæŃ¥": 5791,
      "eff": 5792,
      "å¥³æĢ§": 5793,
      "Ġefficiently": 5794,
      "çļĦæĬĢæľ¯": 5795,
      "Ġgenetic": 5796,
      "ä»¤äºº": 5797,
      "è´¦": 5798,
      "çļĦäº§åĵģ": 5799,
      "åİļ": 5800,
      "åĴĮæĸĩåĮĸ": 5801,
      "éĻĦ": 5802,
      ".,": 5803,
      "Ġmob": 5804,
      "ç»¼åĲĪ": 5805,
      "ters": 5806,
      "æľīä¸Ģ": 5807,
      "å¦Ĩ": 5808,
      "åįĪ": 5809,
      "Ġoutside": 5810,
      "Ġpropert": 5811,
      "éĤ®ä»¶": 5812,
      "ä¸»ä¹ī": 5813,
      "Ġpolicy": 5814,
      "èĩªèº«": 5815,
      "Ġnavigate": 5816,
      "Ġsty": 5817,
      "çĶµèĦĳ": 5818,
      "Ġabilities": 5819,
      "Ġfaced": 5820,
      "çļĦç¼": 5821,
      "çļĦå°ı": 5822,
      "èķ": 5823,
      "Ġtone": 5824,
      "igation": 5825,
      "åıĤæķ°": 5826,
      "èĽĭçĻ½è´¨": 5827,
      "ä½Ľ": 5828,
      "çĶļèĩ³": 5829,
      "Ġskin": 5830,
      "èĴ¸": 5831,
      "æĭĽ": 5832,
      "éŃĶ": 5833,
      "ashion": 5834,
      "Ġingred": 5835,
      "æĹĭ": 5836,
      "Ġcampaign": 5837,
      "Ġmount": 5838,
      "Ġconsid": 5839,
      "Ġmuse": 5840,
      "nter": 5841,
      "water": 5842,
      "ä¼ļè®®": 5843,
      "Ġprotection": 5844,
      "ä¿ĿéĻ©": 5845,
      "Ġcrops": 5846,
      "ogle": 5847,
      "éļıæĹ¶": 5848,
      "æļĹ": 5849,
      "ium": 5850,
      "ä¹ı": 5851,
      "Ġdiet": 5852,
      "lies": 5853,
      "çĶ¨æĿ¥": 5854,
      "ĠEncoura": 5855,
      "æĬĹ": 5856,
      "apan": 5857,
      "éĺ²æŃ¢": 5858,
      "Wow": 5859,
      "çļĦåŁºæľ¬": 5860,
      "å¹³æĸ¹": 5861,
      "Ġstep": 5862,
      "åı¯éĿł": 5863,
      "è¡¨æĺİ": 5864,
      "Ġpredictions": 5865,
      "Ġsympt": 5866,
      "Ġdiagnoses": 5867,
      "åħ¬åĽŃ": 5868,
      "Ġsupply": 5869,
      "Ġprevious": 5870,
      "ç»ĦåĲĪ": 5871,
      "çļĦè¿ĩç¨ĭ": 5872,
      "æķı": 5873,
      "su": 5874,
      "aris": 5875,
      "çķħ": 5876,
      "ocol": 5877,
      "æĲľç´¢": 5878,
      "itle": 5879,
      "éĨĴ": 5880,
      "é¡¾å®¢": 5881,
      "éĢ»è¾ĳ": 5882,
      "éĿŀå¸¸éĩįè¦ģ": 5883,
      "ĠBi": 5884,
      "å·¦åı³": 5885,
      "amm": 5886,
      "Ġeverything": 5887,
      "æĺł": 5888,
      "Ġincred": 5889,
      "Ġpeace": 5890,
      "èľľ": 5891,
      "Ġmuseum": 5892,
      "çĭ¬ç«ĭ": 5893,
      "Ġcomprehensive": 5894,
      "Ġrates": 5895,
      "Ġrad": 5896,
      "//": 5897,
      "åĦ¿ç«¥": 5898,
      "çī¹èī²": 5899,
      "ĠPredictive": 5900,
      "å¼ķåĬĽ": 5901,
      "ler": 5902,
      "å°¤": 5903,
      "icro": 5904,
      "è¡¥": 5905,
      "Ġdetermine": 5906,
      "çļĦåĨħå®¹": 5907,
      "Ġcompl": 5908,
      "Ġgreenhouse": 5909,
      "èħĲ": 5910,
      "Ġhighlight": 5911,
      "Ġpartners": 5912,
      "Ġdoct": 5913,
      "çļĦä½¿çĶ¨": 5914,
      "æŃĮæĽ²": 5915,
      "æĮĩåįĹ": 5916,
      "ĠAf": 5917,
      "æľºæŀĦ": 5918,
      "éĢĢ": 5919,
      "Ġpoems": 5920,
      "å¿ĥåĴĮ": 5921,
      "Ġattend": 5922,
      "çļĦæ¸¸": 5923,
      "Ġside": 5924,
      "ales": 5925,
      "Ġmentioned": 5926,
      "ĠAbs": 5927,
      "Ġhistorical": 5928,
      "Ġleft": 5929,
      "ä»¥ä¸ĭåĩłä¸ª": 5930,
      "åıĹæ¬¢è¿İ": 5931,
      "èıľåĵģ": 5932,
      "Ġremain": 5933,
      "æĩ": 5934,
      "Ġtours": 5935,
      "łéģĵ": 5936,
      "Ġerrors": 5937,
      "æľºåĪ¶": 5938,
      "æ¦": 5939,
      "æĤ£èĢħ": 5940,
      "Ġexperts": 5941,
      "çļĦçłĶç©¶": 5942,
      "ç»ĵæĿŁ": 5943,
      "Ġwritten": 5944,
      "more": 5945,
      "çłĶ": 5946,
      "Ġet": 5947,
      "input": 5948,
      "æ°Ķä½ĵ": 5949,
      "èļ": 5950,
      "æĥĬ": 5951,
      "Ġage": 5952,
      "éĩįå¤į": 5953,
      "å¼¹": 5954,
      "åŃ¤": 5955,
      "Ġsymptoms": 5956,
      "Ġbelief": 5957,
      "'d": 5958,
      "iol": 5959,
      "Ġ18": 5960,
      "åħħè¶³": 5961,
      "çıį": 5962,
      "forcement": 5963,
      "æĸĹ": 5964,
      "ªèĮĦ": 5965,
      "Ġ15": 5966,
      "Ġapplic": 5967,
      "ä¸Ģä¸ªäºº": 5968,
      "è´¥": 5969,
      "ä½įäºİ": 5970,
      "éĻ¤äºĨ": 5971,
      "ä¸īè§Ĵ": 5972,
      "=\"": 5973,
      "æĢĿç»´": 5974,
      "åį·": 5975,
      "Ġfru": 5976,
      "ĠCollabor": 5977,
      "Ġrequired": 5978,
      "Ġprim": 5979,
      "Ġwatch": 5980,
      "è°ĥåĳ³": 5981,
      "ç»ĵè®º": 5982,
      "ony": 5983,
      "Ġguide": 5984,
      "Ġmax": 5985,
      "ĠCould": 5986,
      "Ġadvent": 5987,
      "Ġexper": 5988,
      "ĠOverall": 5989,
      "çļĦæĬķ": 5990,
      "åĺ": 5991,
      "icial": 5992,
      "oster": 5993,
      "çļĦé¢ľèī²": 5994,
      "Ġoperations": 5995,
      "éĥģ": 5996,
      "Ġmoney": 5997,
      "ley": 5998,
      "cling": 5999,
      "Ġoil": 6000,
      "çļ®èĤ¤": 6001,
      "Ġge": 6002,
      "Ġbat": 6003,
      "ĠPh": 6004,
      "Ġsche": 6005,
      "Ġelectric": 6006,
      "vest": 6007,
      "Ġchain": 6008,
      "Ġcapabilities": 6009,
      "ird": 6010,
      "è¯ģæĺİ": 6011,
      "æľĢå¥½": 6012,
      "ivil": 6013,
      "Ġdepending": 6014,
      "Ġsave": 6015,
      "sy": 6016,
      "Ġpractical": 6017,
      "Ġcultures": 6018,
      "çĽ¸åºĶçļĦ": 6019,
      "çļĦç²": 6020,
      "Ġbehind": 6021,
      "æĹ¶éĹ´åĴĮ": 6022,
      "å¹ħ": 6023,
      "ĠAg": 6024,
      "Ġeffectiveness": 6025,
      "Ad": 6026,
      "ĠOf": 6027,
      "Ġanything": 6028,
      "å·§åħĭåĬĽ": 6029,
      "Ġmist": 6030,
      "Ġlanguages": 6031,
      "ĠMake": 6032,
      "å«": 6033,
      "æ£®": 6034,
      "ĠCont": 6035,
      "ĠAbsolutely": 6036,
      "Ġinvestment": 6037,
      "mat": 6038,
      "çļĦæķħäºĭ": 6039,
      "æ¬§": 6040,
      "Ġspeed": 6041,
      "çļĦæ¸©": 6042,
      "Ġcities": 6043,
      "åĨĻä½ľ": 6044,
      "Thanks": 6045,
      "Ġded": 6046,
      "åĪĨéħį": 6047,
      "Ġdark": 6048,
      "Ġsupporting": 6049,
      "å¹ķ": 6050,
      "ĠKe": 6051,
      "éĽ¶": 6052,
      "Ġsharing": 6053,
      "Ġhouse": 6054,
      "è®¤çŁ¥": 6055,
      "Ġsurrounding": 6056,
      "Ġreduced": 6057,
      "Ġfu": 6058,
      "Ġstor": 6059,
      "Ġabs": 6060,
      "cent": 6061,
      "Tom": 6062,
      "ĠEducation": 6063,
      "Ġthr": 6064,
      "ott": 6065,
      "ĠThat": 6066,
      "Ġhear": 6067,
      "ung": 6068,
      "Ġbeyond": 6069,
      "ĠCo": 6070,
      "room": 6071,
      "è¯ĹæŃĮ": 6072,
      "reme": 6073,
      "Ġlittle": 6074,
      "Ġgames": 6075,
      "ä¹ĭåĲİ": 6076,
      "éĥ½ä¼ļ": 6077,
      "è¯ŃéŁ³": 6078,
      "ç¬ĳ": 6079,
      "çī¹å®ļ": 6080,
      "ç¬¬ä¸Ģ": 6081,
      "Ġdepression": 6082,
      "Ġinnovation": 6083,
      "ĠFr": 6084,
      "Ġcomputer": 6085,
      "å³°": 6086,
      "can": 6087,
      "ç¼ĸåĨĻä¸Ģä¸ª": 6088,
      "Ġinternational": 6089,
      "Ġcancer": 6090,
      "åŃ¦èĢħ": 6091,
      "Ġdiscover": 6092,
      "het": 6093,
      "Ġcompos": 6094,
      "Ġrecy": 6095,
      "Ġ200": 6096,
      "åĲ«æľī": 6097,
      "çĹĽ": 6098,
      "ç¼ĵè§£": 6099,
      "Ġfrequ": 6100,
      "çĶ³": 6101,
      "ĠMar": 6102,
      "çļĦéĢīæĭ©": 6103,
      "Ġunt": 6104,
      "Ġregions": 6105,
      "Ġopin": 6106,
      "ĠGovernments": 6107,
      "æ¶Ĥ": 6108,
      "åĨħå¿ĥ": 6109,
      "ä¸ĬæľĢ": 6110,
      "ä»įçĦ¶": 6111,
      "lier": 6112,
      "æ³³": 6113,
      "äºĴçĽ¸": 6114,
      "ĠStud": 6115,
      "azon": 6116,
      "Ġarch": 6117,
      "Ġchem": 6118,
      "çļĦèĥ½åĬĽ": 6119,
      "çļĦä¸Ģä¸ª": 6120,
      "Ġred": 6121,
      "Ġap": 6122,
      "Ġwomen": 6123,
      "Ġprote": 6124,
      "Ġfinding": 6125,
      "å§»": 6126,
      "éĢĤå½ĵçļĦ": 6127,
      "Ġforward": 6128,
      "å¯¹è±¡": 6129,
      "Ġwait": 6130,
      "Ġconsidered": 6131,
      "dule": 6132,
      "backs": 6133,
      "Ġclinical": 6134,
      "åħ·å¤ĩ": 6135,
      "éº¦": 6136,
      "Ġongoing": 6137,
      "åĨĽ": 6138,
      "Ġfar": 6139,
      "åĴĮè°": 6140,
      "XXX": 6141,
      "Ġpolitical": 6142,
      "Ġcamer": 6143
    },
    "merges": [
      "Ġ t",
      "Ġ a",
      "i n",
      "h e",
      "r e",
      "ä ¸",
      "o n",
      "a t",
      "ç ļ",
      "çļ Ħ",
      "Ġ s",
      "Ġ c",
      "n d",
      "e r",
      "ã Ģ",
      "Ġt he",
      "e s",
      "e n",
      "o r",
      "a n",
      "Ġa nd",
      "Ġ p",
      "in g",
      "i t",
      "a l",
      "ãĢ Ĥ",
      "Ġ o",
      "Ġ w",
      "ä »",
      "Ġt o",
      "i s",
      "o u",
      "Ġ m",
      "ä º",
      "Ġ in",
      "Ġ f",
      "Ġ b",
      "e d",
      "i on",
      "å ı",
      "i c",
      "Ġ d",
      "Ġo f",
      "l e",
      "a r",
      "r o",
      "Ġ Ġ",
      "å ħ",
      "en t",
      "æ ľ",
      "Ġ e",
      "å Ĵ",
      "è ¿",
      "ä ½",
      "åĴ Į",
      "æ Ī",
      "å ®",
      "å Ī",
      "v e",
      "u s",
      "Ġ re",
      "Ġ h",
      "Ġt h",
      "a s",
      "c t",
      "ç Ķ",
      "o m",
      "å ľ",
      "å ¤",
      "æ ĺ",
      "å Ĭ",
      "å Ĳ",
      "ä¸ Ģ",
      "i m",
      "è ¯",
      "æ ĸ",
      "at ion",
      "l o",
      "ç »",
      "Ġb e",
      "ãĢ ģ",
      "i d",
      "Ġc an",
      "i l",
      "æĺ ¯",
      "ä ¹",
      "è ®",
      "Ġ A",
      "Ġth at",
      "Ġ T",
      "ä» ¥",
      "c h",
      "Ġ y",
      "c e",
      "o t",
      "er s",
      "Ġ n",
      "é Ģ",
      "r a",
      "å °",
      "Ġ g",
      "Ġy ou",
      "å Ń",
      "Ġp ro",
      "e t",
      "å º",
      "åľ ¨",
      "l y",
      "Ġ is",
      "ä¸ ª",
      "Ġ l",
      "u r",
      "Ġf or",
      "åı ¯",
      "é ĩ",
      "s t",
      "çļĦ æ",
      "u t",
      "Ġ he",
      "i f",
      "ĥ ½",
      "ä ¼",
      "Ġ I",
      "è ¡",
      "i r",
      "it h",
      "å ¹",
      "Ġa re",
      "i g",
      "Ġs t",
      "e l",
      "o l",
      "å ¸",
      "u l",
      "æ Ŀ",
      "æĪ ĳ",
      "Ġ on",
      "è ¦",
      "æľ ī",
      "æ Ĺ",
      "å ¯",
      "è §",
      "è¦ ģ",
      "Ġ us",
      "a y",
      "æ ķ",
      "ç ī",
      "o w",
      "m ent",
      "çĶ ¨",
      "es s",
      "ä¸ Ń",
      "ä» ¬",
      "äº º",
      "ĠĠ ĠĠ",
      "Ġe x",
      "å ĩ",
      "å Ľ",
      "å Į",
      "å ¼",
      "Ġc on",
      "s e",
      "è ĥ½",
      "ç İ",
      "Ġa n",
      "Ġw ith",
      "ä¸ º",
      "at e",
      "i v",
      "a m",
      "Ġa s",
      "u re",
      "è¿ Ļ",
      "å Ĩ",
      "ç Ń",
      "Ġ or",
      "å ·",
      "Ġa l",
      "i es",
      "ç §",
      "Ġ im",
      "æ Ģ",
      "v er",
      "a b",
      "äº Ĩ",
      "Ġs u",
      "Ġd e",
      "g e",
      "t h",
      "åı¯ ä»¥",
      "è Ģ",
      "ä¸ į",
      "å ¾",
      "ĠA I",
      "Ġ en",
      "é Ĺ",
      "æ ī",
      "a k",
      "i ve",
      "Ġm o",
      "å ¥",
      "é Ŀ",
      "ç Ľ",
      "it y",
      "ä ¿",
      "u n",
      "è ´",
      "å į",
      "Ġ it",
      "Ġim p",
      "e ct",
      "æ ł",
      "å ½",
      "è ĩ",
      "é ¢",
      "å ĵ",
      "æ ³",
      "or t",
      "a d",
      "æ ŀ",
      "e m",
      "Ġc om",
      "å ¦",
      "he r",
      "e re",
      "Ġ S",
      "i al",
      "Ġ C",
      "ĠT he",
      "ç Ĳ",
      "çĶ Ł",
      "æ Ħ",
      "p p",
      "æ Ń",
      "æĸ ¹",
      "q u",
      "Ġw h",
      "å¦ Ĥ",
      "é ľ",
      "an t",
      "Ġ le",
      "Ġ v",
      "æ ĭ",
      "æ Ĭ",
      "us t",
      "æĹ ¶",
      "çŃ ī",
      "å ĳ",
      "å¯ ¹",
      "t er",
      "l d",
      "è¡ Į",
      "Ġc h",
      "u d",
      "éľ Ģ",
      "æ °",
      "æĪ Ĳ",
      "Ġ |",
      "a c",
      "a in",
      "i z",
      "æ ı",
      "ion s",
      "Ġh a",
      "æ Ľ",
      "- -",
      "æĿ ¥",
      "om e",
      "å ¿",
      "' s",
      "Ġn e",
      "es t",
      "ä ¾",
      "u m",
      "åĪ °",
      "åľ °",
      "is t",
      "çī ©",
      "ä¸Ģ ä¸ª",
      "l p",
      "æ İ",
      "èĩ ª",
      "â Ģ",
      "Ġhe lp",
      "Ġthe ir",
      "æ Ķ",
      "ä½ ľ",
      "ä¼ ļ",
      "æ Į",
      "æĪĳ ä»¬",
      "n t",
      "äº İ",
      "åĪ Ĩ",
      "re s",
      "p e",
      "åĩ º",
      "id e",
      "æ ĥ",
      "Ġ H",
      "è ¾",
      "Ġ M",
      "f f",
      "æ ¯",
      "o d",
      "ic al",
      "Ġw or",
      "ä¸ Ĭ",
      "a re",
      "æĽ ´",
      "Ġyou r",
      "ä¸ ĭ",
      "è µ",
      "ation s",
      "æķ °",
      "Ġt e",
      "å İ",
      "çĲ Ĩ",
      "ĠT h",
      "è¿ ĩ",
      "å¹ ¶",
      "d u",
      "éĿ ¢",
      "Ġa d",
      "il l",
      "æ µ",
      "å¥ ½",
      "o c",
      "a ct",
      "éľĢ è¦ģ",
      "ä» ĸ",
      "å ±",
      "Ġ r",
      "Ġmo re",
      "åŃ ¦",
      "ç ®",
      "ig h",
      "äº Ľ",
      "Ġ B",
      "åĬ ¨",
      "åĵ ģ",
      "è ī",
      "p le",
      "Ġin c",
      "åĲ Į",
      "Ġex p",
      "ou ld",
      "ä½ ł",
      "æ į",
      "æı Ĳ",
      "å¤ §",
      "çİ °",
      "p t",
      "Ġ P",
      "al l",
      "åĬ ł",
      "ç§ į",
      "Ġs e",
      "åĬ Ľ",
      "ou t",
      "Ġha ve",
      "ç º",
      "ä½ ĵ",
      "Ġpro v",
      "åĮ ĸ",
      "å¤ ļ",
      "å® ļ",
      "Ġus ed",
      "éĢ ļ",
      "c c",
      "è¿ Ľ",
      "æ ´",
      "Ġs h",
      "Ġa b",
      "o s",
      "Ġre s",
      "ĠTh is",
      "ç ¨",
      "æĢ §",
      "a ge",
      "r i",
      "æ ¸",
      "ab le",
      "åŃ Ĳ",
      "Ġb y",
      "åı ĳ",
      "éĩ ı",
      "åº Ķ",
      "Ġ lo",
      "ä½ ¿",
      "åħ ¶",
      "é «",
      "é Ļ",
      "é« ĺ",
      "åº ¦",
      "è§ £",
      "é £",
      "å° Ĩ",
      "æ³ ķ",
      "ä¿ Ŀ",
      "a nd",
      "an s",
      "f or",
      "ro m",
      "re at",
      "Ġp l",
      "çļĦ ç",
      "å¸ ¸",
      "è ½",
      "Ġw e",
      "è¡ ¨",
      "ak e",
      "æĪ ĸ",
      "é¢ ĺ",
      "å Ł",
      "Ġm e",
      "æĸ ĩ",
      "t her",
      "k e",
      "å® ¶",
      "åĲ Ī",
      "æľ Ģ",
      "in e",
      "Ġs ome",
      "ç ±",
      "éĩ į",
      "æŀ ľ",
      "Ġ W",
      "Ġ E",
      "é ĺ",
      "ou r",
      "r ou",
      "ç Ĥ",
      "æ ±",
      "åħ ³",
      "Ġin t",
      "an ce",
      "ä¹ Ł",
      "é ģ",
      "ĠĠ Ġ",
      "å® ĥ",
      "a g",
      "æ ¬",
      "0 0",
      "è °",
      "ul t",
      "y st",
      "éĹ ´",
      "ç ³",
      "Ġt r",
      "p l",
      "ar t",
      "æĦ Ł",
      "æ Ĥ",
      "at a",
      "Ġ F",
      "for m",
      "è® ¡",
      "Ġf rom",
      "Ġ D",
      "éĹ ®",
      "igh t",
      "c es",
      "æį ®",
      "lo p",
      "ä¹ ĭ",
      "Ġf e",
      "å ģ",
      "ve lop",
      "Ġ 1",
      "åĽ ł",
      "k s",
      "æ ²",
      "Ġ u",
      "å° ı",
      "yst em",
      "Ġd is",
      "Ġ R",
      "g y",
      "å· ¥",
      "ç¨ ĭ",
      "å ¢",
      "en ce",
      "è Ĥ",
      "ç ¡",
      "Ġt ra",
      "å »",
      "åħ ¥",
      "ig n",
      "al th",
      "Ġsu ch",
      "a ch",
      "æ Ļ",
      "ar n",
      "Ġd ata",
      "è ¶",
      "å® ŀ",
      "s o",
      "Ġde velop",
      "ç ¤",
      "Ġa cc",
      "as t",
      "èĢ Į",
      "Ġ \"",
      "Ġo ther",
      "å» º",
      "Ġe ff",
      "ç «",
      "Ġm an",
      "åħ ¬",
      "å Ģ",
      "ç Ħ",
      "m s",
      "å¼ ı",
      "èī ²",
      "å¾ Ĺ",
      "if ic",
      "Ġ j",
      "Ġ ro",
      "Ġh as",
      "ch n",
      "o lo",
      "åĪ ¶",
      "è Ĭ",
      "ä½¿ çĶ¨",
      "ou s",
      "u al",
      "Ġa t",
      "Ġe m",
      "el l",
      "Ġs ystem",
      "Ġhe alth",
      "it ies",
      "Ġex am",
      "i b",
      "é Ķ",
      "Ġab out",
      "äº §",
      "åĲ İ",
      "æĦ ı",
      "ç± »",
      "Ġp re",
      "æĤ ¨",
      "Ġal so",
      "ent s",
      "Ġin d",
      "in d",
      "éĢ Ĥ",
      "Ġte chn",
      "res s",
      "æĥ ħ",
      "éĹ® é¢ĺ",
      "Ġus e",
      "Ġinc l",
      "Ġs pe",
      "ic h",
      "p s",
      "æľ º",
      "Ġthe y",
      "i e",
      "Ġh ow",
      "Ġwor k",
      "ä¸ ļ",
      "ç ´",
      "Ġimp ro",
      "Ġle arn",
      "æĸ °",
      "çĤ ¹",
      "Ġcon t",
      "ar d",
      "çĦ ¶",
      "æľ ¬",
      "ç³ »",
      "ç¡ ®",
      "è® ¾",
      "åħ ·",
      "éĢ ī",
      "èĢ ħ",
      "é ħ",
      "g h",
      "_ _",
      "Ġn ot",
      "ç ľ",
      "çĽ ¸",
      "Ġprov ide",
      "å ī",
      "ion al",
      "Ġen s",
      "ä¸ İ",
      "è´ ¨",
      "ent ial",
      "ç» ı",
      "å¿ ĥ",
      "an g",
      "æŃ ¤",
      "e nd",
      "Ġp o",
      "è¿Ľ è¡Į",
      "ic e",
      "Ġ -",
      "Ġw ay",
      "å· ±",
      "Ġ 2",
      "im e",
      "ç ½",
      "èĩª å·±",
      "Ġ un",
      "b ot",
      "Ġincl ud",
      "at ed",
      "æ° ´",
      "é ķ",
      "æĮ ģ",
      "ä» £",
      "é ¡",
      "æī Ģ",
      "ç Ŀ",
      "pp ort",
      "o od",
      "i ke",
      "r u",
      "Ġcom m",
      "Ġ L",
      "ä¿ ¡",
      "Ġ G",
      "ç Ł",
      "çĶ µ",
      "Ġw as",
      "lo w",
      "er v",
      "åĮ ħ",
      "ĠĠĠĠ ĠĠĠĠ",
      "Ġw he",
      "d it",
      "Ġwh ich",
      "Ġcom p",
      "é ª",
      "o re",
      "ç ¾",
      "Ġ =",
      "çī ¹",
      "if f",
      "er t",
      "æ ģ",
      "r it",
      "Ġre c",
      "åĨ ħ",
      "æĺ İ",
      "or s",
      "Ġp at",
      "-- --",
      "æ Ł",
      "Ġa pp",
      "n s",
      "åĬ ¡",
      "al y",
      "a ce",
      "æ´ »",
      "ä¾ Ľ",
      "a v",
      "ä¸ »",
      "Ġp ers",
      "ç ĥ",
      "è¯ ¥",
      "Ġm y",
      "ç ©",
      "er i",
      "è® ©",
      "æĬ Ģ",
      "éķ ¿",
      "ac k",
      "Ġ N",
      "Ġd iff",
      "Ġth is",
      "å Ŀ",
      "Ġens ure",
      "å½ ĵ",
      "Ġo ut",
      "Ġc l",
      "Ġ k",
      "é ¦",
      "ou nt",
      "çİ ¯",
      "åĬ ©",
      "Ġtechn olo",
      "Ġthe se",
      "f ul",
      "Ġ (",
      "é ļ",
      "æ ·",
      "ä¸Ģ äºĽ",
      "Ġs oc",
      "å¼ Ģ",
      "å¤ ©",
      "Ġe v",
      "Ġre du",
      "Ġthe m",
      "é ĥ½",
      "æĪ ·",
      "è ·",
      "åľ º",
      "æ° Ķ",
      "Ġ Y",
      "è¯ Ń",
      "éĢļ è¿ĩ",
      "å± ķ",
      "Ġc o",
      "å½ ±",
      "ç ¬",
      "Ġan aly",
      "æ¯ Ķ",
      "åħ ¨",
      "Ġimpro ve",
      "ç» ĵ",
      "å¹ ´",
      "ç ķ",
      "çĿ Ģ",
      "Ġh um",
      "Ġ qu",
      "ç® Ĺ",
      "Ġ O",
      "é£ Ł",
      "il ity",
      "Ġsystem s",
      "åı ĺ",
      "a il",
      "ç ¼",
      "ç ł",
      "è¿Ļ ä¸ª",
      "æıĲ ä¾Ľ",
      "as e",
      "å ŀ",
      "ment s",
      "Ġp ot",
      "Ġan y",
      "ä½ Ĩ",
      "Ġcon s",
      "ĠI t",
      "æł ¼",
      "Ġa r",
      "æľ ¯",
      "éĿ ŀ",
      "Ġd o",
      "Ġm ay",
      "æĭ ©",
      "u e",
      "éĢī æĭ©",
      "r y",
      "é ĥ",
      "Ġl ike",
      "on g",
      "è ģ",
      "` `",
      "i le",
      "æ± Ĥ",
      "Ġne w",
      "i ent",
      "Ġimp act",
      "è¿ ĺ",
      "æ³ ¨",
      "ä¹ Ī",
      "çĽ ®",
      "âĢ ľ",
      "âĢ Ŀ",
      "e f",
      "ä¾ ĭ",
      "Ġpot ential",
      "o k",
      "åı¯ èĥ½",
      "Ġtr ans",
      "Ġa ct",
      "Ġspe c",
      "Ġw ill",
      "æ ¶",
      "äº ¤",
      "iz e",
      "ç¾ İ",
      "å¸ Ĥ",
      "Ġst ud",
      "p on",
      "è º",
      "ä¸į åĲĮ",
      "on e",
      "å¾ Ī",
      "åı Ĭ",
      "å¦Ĥ æŀľ",
      "çĲ ĥ",
      "an ge",
      "Ġne ed",
      "å¤ ĸ",
      "et y",
      "ak ing",
      "è¯ ·",
      "at er",
      "Ġpers on",
      "id ent",
      "Ġs o",
      "Ġm ake",
      "å¹ ³",
      "å¤ Ł",
      "èº «",
      "Ġin form",
      "æ ¡",
      "äº ĭ",
      "åı Ĺ",
      "as ed",
      "il d",
      "Ġof f",
      "Ġthe re",
      "c is",
      "è ¢",
      "éĥ ¨",
      "æ¯ ı",
      "ra ct",
      "as s",
      "Ġlearn ing",
      "å ĸ",
      "å½ ¢",
      "i re",
      "ä» İ",
      "bot s",
      "è Ļ",
      "å¸ ®",
      "Ġd es",
      "ĠI n",
      "c ess",
      "Ġp e",
      "Ġwh o",
      "if y",
      "ä¹ ł",
      "æľ Ł",
      "Ġexp eri",
      "é Ĥ",
      "Ġs c",
      "e p",
      "ä½ ķ",
      "Ġt ime",
      "éĿŀ å¸¸",
      "æĭ ¬",
      "å ķ",
      "ä»¥ ä¸ĭ",
      "éģ ĵ",
      "Ġcomm un",
      "Ġc ould",
      "a p",
      "è Ĳ",
      "è° ĥ",
      "l ic",
      "du ct",
      "Ġit s",
      "c y",
      "è¯ ´",
      "Ġm ed",
      "Ġc ol",
      "ul ar",
      "éĩį è¦ģ",
      "Ġs p",
      "åĪ ©",
      "èµ ·",
      "Ġprov id",
      "ic es",
      "å Ļ",
      "æĸ Ļ",
      "Ġimp ort",
      "ur al",
      "åŃ Ĺ",
      "Ġu nd",
      "in t",
      "Ġo ver",
      "åı ¸",
      "æł ¹",
      "é ¥",
      "pl es",
      "ä»ĸ ä»¬",
      "g ra",
      "ur ing",
      "n ow",
      "åį ķ",
      "è¿Ļ äºĽ",
      "åī į",
      "å® ī",
      "Ġp r",
      "åĮħ æĭ¬",
      "ç» Ļ",
      "T he",
      "ä½ į",
      "å §",
      "ç´ ł",
      "åĳ ĺ",
      "Ġ ident",
      "åŀ ĭ",
      "Ġad d",
      "å¼ º",
      "æĺ¯ ä¸Ģ",
      "i p",
      "g or",
      "Ġsu pport",
      "n e",
      "Ġdiff ere",
      "åħ ĥ",
      "Ġas s",
      "åĨ ³",
      "é Ľ",
      "åĲ į",
      "Ġg o",
      "Ġtechnolo gy",
      "æĢ »",
      "è® ®",
      "Ġin ter",
      "Ġin v",
      "Ġo ur",
      "æķ Ī",
      "ust om",
      "Ġre l",
      "if e",
      "åĻ ¨",
      "ing s",
      "ä» ·",
      "Ġp art",
      "è¢ «",
      "æī ĭ",
      "ar y",
      "Ġres pon",
      "Ċ ĠĠĠ",
      "å¥½ çļĦ",
      "at ive",
      "å¸® åĬ©",
      "ç» Ł",
      "æĶ ¾",
      "ĠH ere",
      "ç ģ",
      "Ġb ut",
      "æģ ¯",
      "æŃ £",
      "ar k",
      "åħ¬ åı¸",
      "or y",
      "å¢ ĥ",
      "le ct",
      "é Ł",
      "æĥ ³",
      "é£ İ",
      "at ing",
      "Ġa m",
      "it s",
      "æ »",
      "gor ith",
      "åĵ į",
      "ure s",
      "Ġeff ect",
      "Ġsh ould",
      "Ġp er",
      "è ±",
      "ç ²",
      "ic t",
      "Ġal gorith",
      "u c",
      "rou gh",
      "ä» »",
      "ä» ¶",
      "Ġbe t",
      "i a",
      "Ġanaly z",
      "æł¹ æį®",
      "iz ed",
      "æµ ģ",
      "è§ Ĥ",
      "è £",
      "æł ĩ",
      "ir on",
      "Ġc ustom",
      "Ġre g",
      "Ġperson al",
      "èĥ½ å¤Ł",
      "ic s",
      "iv id",
      "ç Ī",
      "èµ Ħ",
      "æŃ ¥",
      "å® ¹",
      "åĪ Ľ",
      "è Ī",
      "ä¹ Ĳ",
      "å¯ ¼",
      "g an",
      "èĬ Ĥ",
      "Ġal l",
      "en s",
      "am e",
      "n ess",
      "Ġu p",
      "Ġ U",
      "èĢ ĥ",
      "el f",
      "åĢ ¼",
      "å° ĳ",
      "æľ į",
      "ar i",
      "th ical",
      "v iron",
      "è ĥ",
      "or d",
      "Ġs ign",
      "éĩ Į",
      "ou nd",
      "o ple",
      "åŁ º",
      "Ġinform ation",
      "Ġident ify",
      "åĽ ŀ",
      "Ġc re",
      "éŁ ³",
      "ib le",
      "u b",
      "è¿ Ĳ",
      "Ġle ad",
      "æ¸ ¸",
      "æ¬ ¡",
      "åĨ Ļ",
      "éĤ £",
      "g et",
      "è į",
      "Ġexam ple",
      "ä¼ ĺ",
      "å½± åĵį",
      "is h",
      "x t",
      "æ º",
      "éª Į",
      "o b",
      "å® ¢",
      "å¤ ĩ",
      "åģ ¥",
      "è½ ¦",
      "ç¤ ¾",
      "ivid ual",
      "ere d",
      "l es",
      "Ġen viron",
      "Ġpe ople",
      "æĺ Ł",
      "ç ĸ",
      "ç ĭ",
      "Ġd et",
      "æĹ ł",
      "Ġ if",
      "o se",
      "it e",
      "å¢ ŀ",
      "é Ĵ",
      "åĲĮ æĹ¶",
      "è¿ °",
      "æĸ¹ å¼ı",
      "åĽ ½",
      "é »",
      "å¤ Ħ",
      "Ġexam ples",
      "æ ®",
      "Ġint o",
      "æĮ ĩ",
      "Ġhum an",
      "åĲ ĳ",
      "ç¤ º",
      "æķ° æį®",
      "Ġ 3",
      "Ġ J",
      "è ı",
      "çİ¯ å¢ĥ",
      "al s",
      "ers t",
      "Ġe thical",
      "ç» Ħ",
      "ä¼ ł",
      "Ġdiffere nt",
      "Ġk now",
      "åº ı",
      "Ġind ividual",
      "æıĲ é«ĺ",
      "rou nd",
      "å° ±",
      "åı ĸ",
      "åŃ ĺ",
      "ä¸ ¤",
      "çŁ ¥",
      "our ces",
      "c k",
      "å £",
      "in es",
      "è¾ ¾",
      "Ġman y",
      "æķ ´",
      "æł ·",
      "dit ional",
      "om m",
      "çĶ ±",
      "éĢ ł",
      "å®ĥ ä»¬",
      "u es",
      "Ġm ent",
      "Ġimport ant",
      "Ġo pt",
      "Ġlo c",
      "p h",
      "Ġpro cess",
      "Ġalgorith ms",
      "è®¾ è®¡",
      "Ġsoc ial",
      "ver y",
      "åĪ Ļ",
      "ä¾ĭ å¦Ĥ",
      "è® ¤",
      "Ġa ut",
      "Ġs erv",
      "g g",
      "äº§ åĵģ",
      "è§ Ħ",
      "çľ ĭ",
      "ve l",
      "æĸ¹ æ³ķ",
      "Ġb en",
      "åĽł æŃ¤",
      "c are",
      "p er",
      "åĬ Ł",
      "å»º è®®",
      "Ġp os",
      "æ ¤",
      "åĮ º",
      "w e",
      "i qu",
      "Ġre al",
      "æĹ ¥",
      "Ġredu ce",
      "a f",
      "ang u",
      "Ġs k",
      "Ġ ed",
      "erst and",
      "åĨ µ",
      "m ot",
      "åħ Ī",
      "ç ¥",
      "åºĶ è¯¥",
      "Ġth rough",
      "Ġcon c",
      "åıĳ å±ķ",
      "è¯ ķ",
      "æ¡ Ī",
      "Ġenviron ment",
      "åı £",
      "Ġad v",
      "åĪ «",
      "Ġben ef",
      "æ¸ ħ",
      "åĳ ³",
      "åħ ī",
      "Ġdevelop ment",
      "en g",
      "å¦Ĥ ä½ķ",
      "ç® ¡",
      "iv ers",
      "åĲ Ħ",
      "Ġr is",
      "ro w",
      "er gy",
      "è®¡ ç®Ĺ",
      "ä¿¡ æģ¯",
      "Ġpro duct",
      "è¾ ĥ",
      "è® º",
      "èĩªå·± çļĦ",
      "æĬ ¤",
      "åı į",
      "åħ¶ ä»ĸ",
      "åĪ Ĺ",
      "ç» Ĩ",
      "ç© º",
      "Ġg reat",
      "e ar",
      "æº Ĳ",
      "j ect",
      "çĶŁ æ´»",
      "ä¸Ń çļĦ",
      "Ġund erstand",
      "è ĭ",
      "h at",
      "Ġpro gra",
      "ç Ĭ",
      "éĩ ĳ",
      "ĠĠĠĠ ĠĠĠ",
      "Ġinclud ing",
      "Ġacc ess",
      "è¯ Ĩ",
      "ç ¦",
      "o g",
      "è£ ħ",
      "Ġar t",
      "Ġw rit",
      "Ġinc re",
      "Ġp h",
      "æĸ¹ éĿ¢",
      "Ġp ract",
      "Ġus ing",
      "é¡ ¹",
      "æİ ¥",
      "Ġway s",
      "Ġl angu",
      "æĶ ¯",
      "Ġch all",
      "åİ »",
      "__ __",
      "im ate",
      "æĸ Ń",
      "è ¨",
      "Ġw ell",
      "l l",
      "Ġp ol",
      "æĢ ģ",
      "Ġ ra",
      "C an",
      "åİ Ł",
      "b er",
      "è¨ Ģ",
      "ç« ĭ",
      "Ġg en",
      "éħ į",
      "æ· ±",
      "t e",
      "ä¸ ī",
      "ç§ ĳ",
      "ĠF or",
      "çº ¿",
      "ç ħ",
      "æ ¼",
      "åķ Ĩ",
      "æĿ Ĳ",
      "Ġsign ific",
      "Ġg u",
      "Ġde cis",
      "Ġa g",
      "Ġtra in",
      "Ġc reat",
      "å® Į",
      "æĹ¶ éĹ´",
      "Ġon e",
      "è Ħ",
      "Ġn at",
      "åŃ¦ ä¹ł",
      "çļĦæ ķ",
      "c ed",
      "Ġwhe n",
      "Ġb i",
      "è İ",
      "æĽ´ åĬł",
      "iv es",
      "p ort",
      "å·¥ ä½ľ",
      "v ing",
      "Ġbe en",
      "æĻ º",
      "Ġl ife",
      "å¼ ķ",
      "ar m",
      "çİ ĩ",
      "çĶ¨ æĪ·",
      "ä¹ ī",
      "ä» ½",
      "è¯ Ŀ",
      "in ess",
      "c om",
      "åº ·",
      "åĩ ı",
      "ä» Ģ",
      "è¾ ĵ",
      "Ġv ari",
      "c on",
      "Ġmo d",
      "ä»Ģ ä¹Ī",
      "Ġen ergy",
      "æĬĢ æľ¯",
      "ert ain",
      "m m",
      "ver all",
      "åĪ Ĵ",
      "Ġor gan",
      "Ġro bots",
      "æİ ¨",
      "ant s",
      "åĩ Ĩ",
      "d s",
      "æŀ ģ",
      "ç Ļ",
      "Ġre qu",
      "Ġ ess",
      "ç® Ģ",
      "ust ain",
      "æ ¨",
      "Ġst r",
      "c ing",
      "ab ility",
      "re e",
      "Ġed uc",
      "åİ Ĩ",
      "Ġcre ate",
      "åģ¥ åº·",
      "Ġdes ign",
      "i ps",
      "åģ ļ",
      "èĬ ±",
      "in k",
      "èı ľ",
      "æī ¾",
      "æ® µ",
      "æµ ĭ",
      "Ġ V",
      "ĠB y",
      "å Ķ",
      "é¦ ĸ",
      "è¯ į",
      "Ġwhe re",
      "Ġdis c",
      "äºĨ è§£",
      "r ic",
      "ä¸ Ķ",
      "è¶ ³",
      "æĺ¯ ä¸Ģä¸ª",
      "ar ch",
      "ç§ ¯",
      "å¸ ¦",
      "Ġwh ile",
      "Ġsignific ant",
      "çł ģ",
      "æĪ ¿",
      "Ġbe ing",
      "Ġlangu age",
      "it ive",
      "2 0",
      "Ġanalyz e",
      "æĻ ¯",
      "è Į",
      "ri b",
      "æ¨ ¡",
      "ĠS t",
      "è´ ¹",
      "' t",
      "Ġ 5",
      "Ġhealth care",
      "Ġexperi ence",
      "ä¸ª äºº",
      "ay s",
      "è± ¡",
      "p lo",
      "Ġw ould",
      "èĻ ĳ",
      "æĶ ¶",
      "é¢ Ħ",
      "é¢ Ĩ",
      "ä¿Ŀ æĮģ",
      "en ces",
      "åı ª",
      "èĩ ´",
      "æĪ ı",
      "Ġment al",
      "Ġfe w",
      "at es",
      "è¿ĩ ç¨ĭ",
      "å®ī åħ¨",
      "Ġs ustain",
      "Ġw ere",
      "å¤ ª",
      "ç Į",
      "Ġspec ific",
      "Ġwor ld",
      "çŃ Ķ",
      "`` `",
      "Ġt ake",
      "åħ »",
      "éĢ Ł",
      "e ver",
      "S S",
      "éĶ Ģ",
      "Ġb o",
      "he s",
      "Ġm us",
      "æľį åĬ¡",
      "è§ Ĵ",
      "t en",
      "æŀ Ĳ",
      "p ow",
      "d ict",
      "v ent",
      "1 0",
      "çļĦæ Ĺ",
      "ĸ çķ",
      "Ġpro t",
      "ç½ ®",
      "Ġh igh",
      "Ġb us",
      "Ġind ust",
      "åĲ ¦",
      "c ial",
      "äºº ä»¬",
      "ĠA s",
      "åĳ Ĭ",
      "ad e",
      "æĶ ¹",
      "ç Ĺ",
      "Ġh ad",
      "Ġhe r",
      "Ġj ust",
      "è´ Ń",
      "ç¬ ¬",
      "é ĵ",
      "Ġw ater",
      "Ġf ood",
      "éĺ Ł",
      "a us",
      "Ġchall eng",
      "åħ į",
      "æĸĩ åĮĸ",
      "Ġmo st",
      "é ¸",
      "ç½ ĳ",
      "çĽ ´",
      "Ġs m",
      "Ġact iv",
      "plo y",
      "O verall",
      "å¿ «",
      "ru ct",
      "Ġindividual s",
      "å§ ĭ",
      "g ies",
      "æŁ ¥",
      "çĪ ±",
      "i ety",
      "I n",
      "åĪĨ æŀĲ",
      "è§ Ĩ",
      "æ¸ ©",
      "ç» ´",
      "ol ut",
      "åŁ Ł",
      "omm end",
      "Ġcom ple",
      "æķ Ļ",
      "Ġb u",
      "Ġeduc ation",
      "Ġ 4",
      "at her",
      "t ing",
      "Ġf ind",
      "æ² ¡",
      "Ġh is",
      "ä¹ĭ éĹ´",
      "Ġeffect ive",
      "Ġat t",
      "Ġre se",
      "èĥ½ åĬĽ",
      "åŁ İ",
      "Ġal low",
      "Ġa v",
      "Ġpro mot",
      "æĻº èĥ½",
      "æ» ¡",
      "åħ ±",
      "ie w",
      "c ome",
      "ç³» ç»Ł",
      "Ġrespon s",
      "äº Ĵ",
      "Ġc ult",
      "pow ered",
      "Ġrec ommend",
      "èĲ ¥",
      "O SS",
      "Ġch ange",
      "è¯ ģ",
      "v ed",
      "æİ Ĵ",
      "è§£ åĨ³",
      "ic i",
      "ĠH ow",
      "Ġfe el",
      "æľ Ī",
      "Ġwh at",
      "ä»¥ åıĬ",
      "Ġse e",
      "åŃ ©",
      "b s",
      "Ġs ur",
      "æ £",
      "al ity",
      "Ġv is",
      "ç¡® ä¿Ŀ",
      "p ect",
      "å®ŀ çİ°",
      "Ġc are",
      "å¹ ¿",
      "ill s",
      "åº Ń",
      "as es",
      "å¤ į",
      "åºĶ çĶ¨",
      "çļĦæ ĥ",
      "ard s",
      "Ġadd ress",
      "Ġcomp an",
      "Ġinv ol",
      "Ġcustom er",
      "åĽł ä¸º",
      "Ġstud ents",
      "Ġin s",
      "æ³¨ æĦı",
      "æŀ Ħ",
      "æ¬ ¢",
      "æµ ·",
      "åı Ĥ",
      "èĩª çĦ¶",
      "é ©",
      "ĠThe se",
      "w n",
      "æĺ ĵ",
      "çĬ ¶",
      "re n",
      "Ġt reat",
      "Ġbenef its",
      "Ċ ĠĠĠĠĠĠĠ",
      "å¯¹ äºİ",
      "æĢ Ŀ",
      "id er",
      "ĠY es",
      "Ġ K",
      "åĸ ľ",
      "Ġ ke",
      "Ġen g",
      "Ġpo p",
      "o st",
      "p are",
      "Ġm on",
      "æ¬ ¾",
      "ĠM OSS",
      "Ġem ot",
      "Ġa c",
      "ç¼ ĸ",
      "f ore",
      "åı ¥",
      "Ġv al",
      "il y",
      "Ġis s",
      "èĤ ī",
      "èĩ ³",
      "æ¸¸ æĪı",
      "we en",
      "Ġinclud e",
      "Ġprot ect",
      "åħ³ ç³»",
      "éĻ ©",
      "Ġse ver",
      "Ġth an",
      "éľĢ æ±Ĥ",
      "ç» ĥ",
      "ĠThe y",
      "is s",
      "y s",
      "Ġj ob",
      "éĺ ³",
      "æ Ĳ",
      "Ġbet ween",
      "Ġm ach",
      "---- ----",
      "èĢĥ èĻĳ",
      "è´¨ éĩı",
      "Ġbus iness",
      "w or",
      "ic k",
      "e g",
      "åħ ħ",
      "ç ¯",
      "æĿ ¡",
      "n er",
      "a pt",
      "Ġapp ro",
      "Ġpl ay",
      "æ²¡ æľī",
      "¤ Ĳ",
      "æľ ª",
      "æĪ ĺ",
      "å®¶ åºŃ",
      "ãĢ ĭ",
      "ĠC h",
      "en cy",
      "ãĢ Ĭ",
      "Ġprovid ing",
      "Ġres ources",
      "âĢ Ļ",
      "Ġass ist",
      "Ġnat ural",
      "è¯ Ħ",
      "ä¾ ¿",
      "Ġs af",
      "åħ· æľī",
      "è° ¢",
      "çĥ Ń",
      "s s",
      "et h",
      "ol d",
      "Ġper form",
      "Ġsever al",
      "é ¤Ĳ",
      "Ġe ach",
      "è½ ¬",
      "c i",
      "Ġt y",
      "Ġp ub",
      "æ´» åĬ¨",
      "oc us",
      "çī Į",
      "è¶ Ĭ",
      "åĽ ¢",
      "è½ »",
      "è¯Ń è¨Ģ",
      "Ġare as",
      "éĩ ĩ",
      "f t",
      "ri end",
      "å· ²",
      "å¸Ĥ åľº",
      "it ion",
      "i ents",
      "ç®¡ çĲĨ",
      "è® ¸",
      "äºº ç±»",
      "èº« ä½ĵ",
      "iqu e",
      "Ġpart ic",
      "ç» Ń",
      "age ment",
      "v es",
      "ç¬ ¦",
      "l ine",
      "çº ¢",
      "åĲ ¸",
      "Ġpat ter",
      "00 0",
      "ç¤¾ ä¼ļ",
      "åĨħ å®¹",
      "Ġorgan iz",
      "ou gh",
      "Ġ ve",
      "åŃ© åŃĲ",
      "æĸ ½",
      "æ¤ į",
      "åĩ ł",
      "ä½Ĩ æĺ¯",
      "Ġa ff",
      "Ġn um",
      "le ment",
      "èī º",
      "è ĳ",
      "Ġc ar",
      "ag es",
      "ab or",
      "æĺ¯ä¸Ģ ç§į",
      "Ġin st",
      "è Ľ",
      "ä¹ĭ ä¸Ģ",
      "è· ¯",
      "åį ³",
      "Ġm ain",
      "éļ ı",
      "H ow",
      "å¿ ħ",
      "ç¨ĭ åºı",
      "éŁ³ ä¹Ĳ",
      "re d",
      "æ² ¹",
      "Ġoff er",
      "et s",
      "ç ¢",
      "Ġd uring",
      "çļĦ äºº",
      "æĽ´ å¤ļ",
      "Ġd i",
      "ä»£ çłģ",
      "èİ ·",
      "åħ ĭ",
      "Ġgu id",
      "ä¸» è¦ģ",
      "Ġf am",
      "æİ §",
      "éĢļ å¸¸",
      "ĠA d",
      "å¤Ħ çĲĨ",
      "ur n",
      "ow er",
      "åĳ ½",
      "æı ı",
      "Ġsk ills",
      "Ġto ol",
      "w are",
      "æĸĩ æľ¬",
      "Ġpatter ns",
      "çĽ® æłĩ",
      "ac y",
      "æī ĵ",
      "Ġe very",
      "åŁİ å¸Ĥ",
      "r ies",
      "è¯ »",
      "éģ ¿",
      "çĻ ½",
      "éĢĤ åĲĪ",
      "Ġpat ient",
      "çľ Ł",
      "ot h",
      "å¥ ¹",
      "åĶ ®",
      "ä¸Ģ ç§į",
      "Ġm ade",
      "ä½ İ",
      "is e",
      "Ġre m",
      "æ¶ Ī",
      "åĲ «",
      "a ir",
      "Ġgen er",
      "o y",
      "ç² ¾",
      "æĥħ åĨµ",
      "ight s",
      "Ġexp l",
      "è§ ģ",
      "Ġpre dict",
      "ç± ³",
      "æĽ´ å¥½",
      "ä¿ ®",
      "Ġcl imate",
      "Ġf ocus",
      "Ġg row",
      "å®¢ æĪ·",
      "ä¸į æĸŃ",
      "it or",
      "ĠE n",
      "çº ¦",
      "æĺ¯ åĲ¦",
      "ä» ħ",
      "æĪĳä»¬ çļĦ",
      "æľ Ľ",
      "o p",
      "Ġm aking",
      "y th",
      "cc ess",
      "Ġo wn",
      "gg est",
      "Ġt as",
      "ut ure",
      "Ġmod el",
      "p ut",
      "Ġrese arch",
      "ere st",
      "éļ ¾",
      "Ġ [",
      "i el",
      "ation al",
      "Ġcommun ic",
      "ç¥ ŀ",
      "ç© ¶",
      "Ġre st",
      "æĪĲ ä¸º",
      "k ing",
      "p r",
      "åĮ »",
      "c ur",
      "èĤ ²",
      "Ġ '",
      "è¿Ļ ç§į",
      "ç¯ ĩ",
      "Ġc he",
      "ow n",
      "éĻ ħ",
      "Ġf in",
      "åĪ¶ ä½ľ",
      "Ġsu ggest",
      "å¢ŀ åĬł",
      "Ġmed ia",
      "rib ut",
      "çļĦæĥ ħ",
      "åĬł åħ¥",
      "Ġc le",
      "åĳ ¨",
      "ç« ł",
      "Ġth ink",
      "Ġloc al",
      "pport un",
      "ĠY ou",
      "Ġpl an",
      "Ġev en",
      "éĽ Ĩ",
      "å· §",
      "a x",
      "Ġchalleng es",
      ") :",
      "Ġpro f",
      "ĠC an",
      "Ġconc er",
      "Ġf uture",
      "åĬ ¿",
      "Ġre f",
      "èģ Ķ",
      "Ġs elf",
      "æĪĸ èĢħ",
      "b le",
      "åĽ ´",
      "è¿Ĳ åĬ¨",
      "Ġin f",
      "éĩ Ĭ",
      "Ġsustain able",
      "Ġte xt",
      "Ġg ra",
      "äº Į",
      "åĵģ çīĮ",
      "ä¸įåĲĮ çļĦ",
      "l ed",
      "çĭ ¬",
      "Ġo pportun",
      "Ġcont in",
      "y m",
      "Ġg et",
      "å¯ Ĩ",
      "éĻ ¤",
      "æ ħ",
      "Ġ +",
      "éģ¿ åħį",
      "è§ ī",
      "Ġre t",
      "å¸ ĥ",
      "Ġint erest",
      "Ġsoc iety",
      "ç»ĵ æŀľ",
      "åĲ ¬",
      "é¦ĸ åħĪ",
      "Ġb re",
      "Ġ2 0",
      "ĠHow ever",
      "è® °",
      "on s",
      "è¿ ĳ",
      "å¼Ģ å§ĭ",
      "Ġbu ild",
      "Ġbe h",
      "' m",
      "v ers",
      "Ġg ood",
      "çĲĨ è§£",
      "res ent",
      "ç¦ »",
      "åĬŁ èĥ½",
      "Ġeff ort",
      "l abor",
      "é» ĳ",
      "Ġre ad",
      "Ġbet ter",
      "å¾ ĭ",
      "èĽ ĭ",
      "he d",
      "ä¹ °",
      "å¯¼ èĩ´",
      "Ġimp lement",
      "ç ¿",
      "äº «",
      "å¤ ´",
      "en se",
      "Ġl ong",
      "ot her",
      "é¥ ®",
      "åŃĺ åľ¨",
      "çļĦæ Ħ",
      "ä¸Ģ ä»½",
      "yth on",
      "n ing",
      "åĩı å°ĳ",
      "åĢ Ļ",
      "ä¸ ĵ",
      "åĲĦ ç§į",
      "è ħ",
      "å° ½",
      "åį ĩ",
      "æĬ ¥",
      "Ġpub lic",
      "Ġl ar",
      "ä½ł çļĦ",
      "a ut",
      "é¢Ĩ åŁŁ",
      "æ ļ",
      "ol low",
      "èģ Į",
      "Ġch ang",
      "Ġb est",
      "h ip",
      "åĨ į",
      "ak es",
      "Ġch at",
      "it ed",
      "Ġp ower",
      "ä¿Ŀ æĬ¤",
      "ä¹ ¦",
      "è®¡ åĪĴ",
      "éĩįè¦ģ çļĦ",
      "åıĺ åĮĸ",
      "il ities",
      "Ġcons ider",
      "æĪĳä»¬ åı¯ä»¥",
      "éĤ£ ä¹Ī",
      "Ġ ide",
      "æ¼ Ķ",
      "ag ing",
      "Ġb ased",
      "å® Ŀ",
      "Ġr ange",
      "Ġres ult",
      "Ġm em",
      "çħ §",
      "Ġle vel",
      "c ou",
      "Ġb r",
      "T h",
      "ä¼ ģ",
      "å»º ç«ĭ",
      "Ġun ique",
      "Ġm ark",
      "è® Ń",
      "è®¸ å¤ļ",
      "è¡Į ä¸º",
      "Ķ ç©¶",
      "çļĦæ Ĭ",
      "Ġs et",
      "éª ¤",
      "t s",
      "Ġh ist",
      "Ġa round",
      "Ġre v",
      "åħ¶ ä¸Ń",
      "æıı è¿°",
      "æľĢ åĲİ",
      "Ġs im",
      "n ect",
      "åĽŀ çŃĶ",
      "éĺ ²",
      "èī ¯",
      "åĪ° äºĨ",
      "ä¸ ĸçķ",
      "æĸ¹ æ¡Ī",
      "æĿĲ æĸĻ",
      "ä¸ĸçķ Į",
      "æĽ´å¥½ åľ°",
      "ä¸¤ ä¸ª",
      "Ġem ploy",
      "Ġtr y",
      "æ ĵ",
      "Ġb ack",
      "åĪ ĩ",
      "Ġsu ccess",
      "Ġdecis ions",
      "Ġth ose",
      "å¯ Į",
      "Ġf act",
      "æİ ¢",
      "è¶ £",
      "Ġpract ices",
      "åĲ Ĺ",
      "æī į",
      "çİ ©",
      "pt ion",
      "æĸĩ ç«ł",
      "Ġfe at",
      "Ġpre vent",
      "Ġwrit ing",
      "çļĦæ Ģ",
      "Ġn o",
      "ä» ĭ",
      "éĹ ¨",
      "Ġd el",
      "æ Ĵ",
      "Ġopt im",
      "in ation",
      "Ġ Ċ",
      "us ion",
      "Ġacc ount",
      "l ing",
      ". \"",
      "Ġd ivers",
      "at h",
      "èĭ ±",
      "ä¼ģ ä¸ļ",
      "Ġg rou",
      "åľ° çĲĥ",
      "å¤ ±",
      "Ġpersonal ized",
      "ĠH e",
      "è¡¨ è¾¾",
      "Ġf ollow",
      "cur ity",
      "äº§ çĶŁ",
      "Ġe ar",
      "åİ ĭ",
      "ver n",
      "Ġiss ues",
      "åĿ ĩ",
      "Ġd r",
      "é ²",
      "iv ing",
      "Ġtrain ing",
      "Ġris k",
      "åĩ ½",
      "åı ²",
      "æ ĳ",
      "çļĦæĹ ¶",
      "og n",
      "Ġrequ ire",
      "Ġenvironment al",
      "b ack",
      "éĶ ®",
      "çĸ Ĺ",
      "Ġinter act",
      "åĽ¢ éĺŁ",
      "æ¯ı ä¸ª",
      "çĦ¶ åĲİ",
      "Ġd ist",
      "çĶ¨ äºİ",
      "è®¤ ä¸º",
      "Ġs ent",
      "åĩ½ æķ°",
      "Ċ ĠĠĠĠĠĠĠĠ",
      "Ġredu cing",
      "å¹ ²",
      "Ġre p",
      "Ġc aus",
      "Ġmus ic",
      "ç ª",
      "Ġmon itor",
      "Ġfor m",
      "é¢ ľ",
      "çĹ ħ",
      "é¦ Ļ",
      "Ġof ten",
      "åı¯èĥ½ ä¼ļ",
      "åĳĺ å·¥",
      "Ġha nd",
      "æĬ ķ",
      "Ġneed s",
      "æŃ¤ å¤ĸ",
      "åı ĭ",
      "iv ity",
      "Ġactiv ities",
      "åĸľ æ¬¢",
      "Ġp ur",
      "i an",
      "s elf",
      "åĬ¨ çī©",
      "com es",
      "å ©",
      "Ġpr iv",
      "a z",
      "Ġrel ations",
      "Ġmach ine",
      "çļĦæ °",
      "ä»· æł¼",
      "ä»· åĢ¼",
      "ç´ ¢",
      "Ġfe ed",
      "ä¸Ģ ä¸ĭ",
      "Ġte am",
      "Ġindust ry",
      "è´ ¢",
      "ĠP ro",
      "Ġw ant",
      "ç§ °",
      "Ġcl ass",
      "Ġlo ve",
      "åħ³ äºİ",
      "è¾ĵ åħ¥",
      "Ġtrans port",
      "Ġcomple x",
      "Ġy ear",
      "éĶĢ åĶ®",
      "å¯ »",
      "i ence",
      "ist s",
      "æĶ¯ æĮģ",
      "Ġm ind",
      "Ġf un",
      "Ġch ar",
      "æĮ ī",
      "Ġconcer ns",
      "con om",
      "ç®Ģ åįķ",
      "ä»¥ä¸ĭ æĺ¯",
      "Ġst art",
      "å¹¶ ä¸Ķ",
      "av i",
      "ä¸Ń åĽ½",
      "åħĥ ç´ł",
      "Ġcon f",
      "Ġpos itive",
      "Ġc ur",
      "Ġc ount",
      "er y",
      "å ¡",
      "å® ¤",
      "Ġco st",
      "Ġe qu",
      "Ġpol ic",
      "ast e",
      "a w",
      "éħ Ĵ",
      "cou ra",
      "iv en",
      "pl ace",
      "ch ie",
      "çļĦæķ °",
      "Ġ 0",
      "åĽł ç´ł",
      "Ġf l",
      "is m",
      "Ġmed ical",
      "Ġhum ans",
      "Ġaut om",
      "ertain ly",
      "Ġoff ers",
      "Ġ 6",
      "Ġdet ect",
      "é£İ æł¼",
      "Ġsh ow",
      "çģ «",
      "Ġan im",
      "é¢ľ èī²",
      "le ase",
      "a ve",
      "åĵ ª",
      "ĠThe re",
      "ä»¥ ä¸Ĭ",
      "æľª æĿ¥",
      "X X",
      "çī ĩ",
      "u ch",
      "Ġtas ks",
      "åħ· ä½ĵ",
      "æ¤į çī©",
      "Ġm in",
      "èīº æľ¯",
      "ic ult",
      "Ġexperi ences",
      "æİ§ åĪ¶",
      "b e",
      "Ġpat ients",
      "å ²",
      "ĠW e",
      "Ġrec ogn",
      "çĥ ¤",
      "Ġsm all",
      "åĿ Ĺ",
      "å Ħ",
      "å¤ª éĺ³",
      "ct ion",
      "Ġ ent",
      "æį ¢",
      "Ġbe fore",
      "Ġbe come",
      "å·² ç»ı",
      "è¡¨ çİ°",
      "Ġexp lo",
      "Ġa chie",
      "ä»» åĬ¡",
      "å¤§ çļĦ",
      "Ġd ay",
      "Ġf ound",
      "å± ±",
      "on d",
      "Ġtreat ment",
      "pe nd",
      "he n",
      "Ġcon dit",
      "ç¡® å®ļ",
      "Ġbusiness es",
      "ĠW h",
      "æīĢ æľī",
      "Ġdevelop ed",
      "ç» Ī",
      "æŃ¥ éª¤",
      "Ġdiff icult",
      "åı ·",
      "ĠR e",
      "éĶ Ļ",
      "Ġch o",
      "Ġqu est",
      "Ġtrans pare",
      "Ġpro ject",
      "Ġcommun ity",
      "o v",
      "å¸ Ī",
      "å¼ ł",
      "åĪĨ ç±»",
      "äºº çļĦ",
      "s is",
      "çĽ Ĭ",
      "o id",
      "ĠA n",
      "w ays",
      "Ġe as",
      "Ġaff ect",
      "Ġother s",
      "Ġreg ul",
      "æĢ§ åĴĮ",
      "åĸ Ħ",
      "ag n",
      "ä½ľ ä¸º",
      "åı¯ä»¥ å¸®åĬ©",
      "åĦ ¿",
      "Ġorganiz ations",
      "é¸ ¡",
      "åħ ´",
      "Ġf riend",
      "Ġ $",
      "Ġdet ail",
      "Ġtra ditional",
      "Ġdesign ed",
      "è´Ń ä¹°",
      "ä½ĵ éªĮ",
      "ç» į",
      "er m",
      "Ġcon nect",
      "è¿Ļ æł·",
      "Ġrecommend ations",
      "Ġb oth",
      "Ł éĢļ",
      "æ¯ į",
      "Ġs it",
      "ä½ľ çĶ¨",
      "ä»ĭ ç»į",
      "Ġst e",
      "ĠS ure",
      "åı °",
      "æĤ¨ çļĦ",
      "Ġs he",
      "Ġman agement",
      "( \"",
      "j oy",
      "è´ Ł",
      "Ġpromot e",
      "Ġvari ous",
      ") ,",
      "p or",
      "Ġs ens",
      "Ġess ential",
      "get her",
      "ular ly",
      "äº ī",
      "ir st",
      "Ġspec ies",
      "Ġo p",
      "çİ° åľ¨",
      "ch o",
      "Ġbeh avi",
      "çŃ ĳ",
      "å¥ ³",
      "Ġex t",
      "Ġqu ality",
      "è ¥",
      "å®Į æĪĲ",
      "æĢ» ä¹ĭ",
      "éĥ¨ åĪĨ",
      "ä»İ èĢĮ",
      "åĽ ¾",
      "Ġty p",
      "Ġstr ate",
      "è¥ ¿",
      "Ġhe re",
      "ar s",
      "å¸ Į",
      "çļĦæ Ŀ",
      "å° Ŀ",
      "e e",
      "i er",
      "Ġe c",
      "ical ly",
      "er ing",
      "å¿ µ",
      "ĠD e",
      "Ġne g",
      "å»º çŃĳ",
      "Ġserv ices",
      "Ġab le",
      "im es",
      "Ġopt ions",
      "çĽ¸ åħ³",
      "Ġsu b",
      "Ġdecis ion",
      "ĠC ertainly",
      "Ġ åľ¨",
      "æ ¢",
      "Ġserv ice",
      "å¸¦ æĿ¥",
      "Ġch ild",
      "è§£ éĩĬ",
      "ir t",
      "ç Ĩ",
      "ä¸į ä»ħ",
      "æĿ ¾",
      "ç§¯ æŀģ",
      "r on",
      "åı ¤",
      "çł Ķç©¶",
      "ç² ī",
      "h or",
      "Ġprof ess",
      "çļĦ éĹ®é¢ĺ",
      "Ġopportun ities",
      "åİĨ åı²",
      "Ġde f",
      "ĠA m",
      "Ġg r",
      "a ur",
      "å± Ĥ",
      "çŃ ĸ",
      "Ġpop ular",
      "æ´ ģ",
      "åıĳ çİ°",
      "Ġpo em",
      "èµ Ľ",
      "Ġo b",
      "Ġd on",
      "Ġs ound",
      "Ġtransport ation",
      "i ous",
      "åı ¦",
      "Ġro le",
      "Ġf iel",
      "ç§ĳ åŃ¦",
      "èĢ ģ",
      "Ġc or",
      "re en",
      "æľī æķĪ",
      "Ġfeed back",
      "Ġtechnolo gies",
      "äº¤ éĢļ",
      "Ġad apt",
      "' re",
      "erv ation",
      "Ġcommun ities",
      "çİ° ä»£",
      "Ġlo ok",
      "Ġf ac",
      "çĶµ å½±",
      "Ġcol lect",
      "å¾Ĺ åĪ°",
      "h ips",
      "Ġav ail",
      "ere n",
      "ä¸Ģ èµ·",
      "çī Ľ",
      "Ġpos s",
      "Ġwe ather",
      "Ġeffort s",
      "¿ Ģ",
      "æĹ ħ",
      "o h",
      "Ġcol labor",
      "æĭ ¥",
      "æĪĲ åĬŁ",
      "èİ· å¾Ĺ",
      "å± ħ",
      "Ġt re",
      "Ġs ources",
      "Ġstud y",
      "Ġprogra ms",
      "éĻ Ĳ",
      "Ġt ips",
      "Ġmark et",
      "al ly",
      "å® ³",
      "w ards",
      "æ£ Ģ",
      "ä¸Ģ ç¯ĩ",
      "ri or",
      "Ġto p",
      "Ġe nd",
      "å ĭ",
      "Ġlar ge",
      "Ġde c",
      "ici ency",
      "å®ļ çļĦ",
      "ic ient",
      "è¿ĩç¨ĭ ä¸Ń",
      "lic ations",
      "ç¼ º",
      "Ġto ur",
      "Ġto gether",
      "äºº å·¥",
      "Ġtool s",
      "æĸ ¯",
      "æ° ĳ",
      "æĬ Ĭ",
      "ä¹ĭéĹ´ çļĦ",
      "çī¹ çĤ¹",
      "Ġbe l",
      "ditional ly",
      "åĪ© çĶ¨",
      "è¾ ¹",
      "éĻ į",
      "ĠI f",
      "é¢ Ŀ",
      "åį ı",
      "å¾ Ģ",
      "l ish",
      "è¯ ī",
      "in s",
      "å¥ ¶",
      "Ġe conom",
      "Ġinv est",
      ". .",
      "ĠD o",
      "t ain",
      "åĩº çİ°",
      "çļĦ å½±åĵį",
      "ater ial",
      "Ġs ure",
      "Ġp ass",
      "çĶ »",
      "è´ £",
      "ç»ĵ æŀĦ",
      "æķ ħ",
      "æĥħ æĦŁ",
      "æ ¿Ģ",
      "ell ig",
      "ä¼ Ĺ",
      "æ¯Ķ è¾ĥ",
      "ter n",
      "Ġout comes",
      "u p",
      "Ġbe aut",
      "re ad",
      "çĶŁ æĪĲ",
      "æķ° åŃĹ",
      "Ġde m",
      "i res",
      "åı¯ä»¥ éĢļè¿ĩ",
      "æĸ° çļĦ",
      "Ġde ep",
      "å ¨",
      "çĭ Ĺ",
      "åħ³ æ³¨",
      "çĶŁ åĳ½",
      "ä¼ł ç»Ł",
      "Ġst ay",
      "æŃ Į",
      "åħ³ éĶ®",
      "Ġpl ace",
      "ä¸» é¢ĺ",
      "å¾Ī å¤ļ",
      "èĪ Ĵ",
      "Ġprofess ional",
      "y le",
      "æĽ ²",
      "1 9",
      "Ġess ay",
      "Ġg ive",
      "ç³ ĸ",
      "Ġon ly",
      "æŁ Ĳ",
      "Ġph ys",
      "å¯¹ è¯Ŀ",
      "Ġcont ro",
      "Ġam ount",
      "ce pt",
      "iz ation",
      "ç¼ĸ åĨĻ",
      "åıĹ åĪ°",
      "Ġal ways",
      "æ¯Ķ å¦Ĥ",
      "Ġpriv acy",
      "a u",
      "____ ____",
      "Ġrespons ible",
      "çŃī çŃī",
      "Ġm aterial",
      "Ġon line",
      "é ¼",
      "æĶ ¿",
      "åĽ Ľ",
      "Ġen joy",
      "åľ Ł",
      "Ġsaf ety",
      "Ġt w",
      "Ġcommunic ation",
      "ä¸ ½",
      "æĺ ¾",
      "olut ion",
      "er g",
      "į ä½ľ",
      "Ġus er",
      "Ġemot ional",
      "t ime",
      "é ¾",
      "Ġse curity",
      "Ġs ense",
      "( )",
      "el ines",
      "åĬ ±",
      "çī© è´¨",
      "u ra",
      "Ġsh are",
      "Ġanalyz ing",
      "it al",
      "é ±",
      "irt ual",
      "Ġvis it",
      "b ers",
      "Ġc our",
      "Ġpro ble",
      "è®¾ å¤ĩ",
      "at ch",
      "l and",
      "é± ¼",
      "æĪĳä»¬ éľĢè¦ģ",
      "ç¨ ³",
      "ib ility",
      "Ġeff iciency",
      "å£ °",
      "è Ĵ",
      "æľº åĻ¨",
      "Ġcle ar",
      "åĪ¶ å®ļ",
      "iz ing",
      "Ġcondit ions",
      "Ġlo w",
      "l usion",
      "Ġl im",
      "her s",
      "Ġris ks",
      "ç¿ »",
      "Ġle t",
      "åĴ ĸ",
      "å¿ĥ çĲĨ",
      "è¿ ľ",
      "pr int",
      "Ġchang es",
      "Ġimpro ving",
      "Ġme as",
      "Ġc rit",
      "5 0",
      "å¸Į æľĽ",
      "Ġa ud",
      "åį Ĺ",
      "æĹł æ³ķ",
      "Ġneg ative",
      "é¡¹ çĽ®",
      "u nd",
      "at s",
      "Ġcompan ies",
      "æī¾ åĪ°",
      "Ġcont ribut",
      "æŃ£ ç¡®",
      "é» Ħ",
      "å± ŀ",
      "Ġunderstand ing",
      "Ġm ult",
      "Ġc lo",
      "å¾ ģ",
      "Ġp rior",
      "r im",
      "äººå·¥ æĻºèĥ½",
      "Ġt aking",
      "Ġvari ety",
      "å Ĥ",
      "as ter",
      "od y",
      "Ġ {",
      "çļĦ éĩįè¦ģ",
      "Ġf ore",
      "èµĦ æºĲ",
      "è¦ģ æ±Ĥ",
      "Ġfeat ures",
      "èį ī",
      "èĮ ĥ",
      "Ġo per",
      "çº §",
      "m e",
      "é² ľ",
      "æĬĢ å·§",
      "ĳ æĪĺ",
      "ç±» åŀĭ",
      "æĿ ¿",
      "è½ ¯",
      "e w",
      "Ġrest aur",
      "\" ,",
      "Ġwith out",
      "ruct ure",
      "çļĦ æĺ¯",
      "ç ı",
      "Ġl ist",
      "ur ate",
      "Ġbo ok",
      "äº ²",
      "åº Ĺ",
      "ä¹Ł æĺ¯",
      "ä»» ä½ķ",
      "Ġc am",
      "ĠB e",
      "Ġgo vern",
      "Ġbehavi or",
      "è®Ń ç»ĥ",
      "Ġfam ily",
      "æĿ Ĥ",
      "Ġc ity",
      "Ġappro ach",
      "Ġacc urate",
      "Ġs om",
      "Ġe l",
      "èĪ ŀ",
      "è ŀ",
      "åŁº æľ¬",
      "Ġdis e",
      "Ġen coura",
      "ĠW hat",
      "å ĥ",
      "è¯ ¦",
      "¦ Ĥ",
      "å·¥ åħ·",
      "åķ ¡",
      "Ġst ill",
      "cho ol",
      "æĦŁ åĪ°",
      "çĶŁ çī©",
      "åĴĸ åķ¡",
      "åĩĨ å¤ĩ",
      "Ġ 8",
      "Ġw aste",
      "Ġev ents",
      "æķĻ èĤ²",
      "Ġm ust",
      "i ed",
      "as ing",
      "å½¢ æĪĲ",
      "Ġproduct s",
      "åħ ¸",
      "è® ²",
      "f ter",
      "å· ®",
      "l ess",
      "Ġc ro",
      "Ġfin an",
      "åıį åºĶ",
      "åĪĽ éĢł",
      "Ġguid elines",
      "åĪ ¤",
      "ä½ľ åĵģ",
      "è¡¨ ç¤º",
      "å¼ Ĥ",
      "Ġknow n",
      "Ġt est",
      "è¯ ¯",
      "o pe",
      "Ġus ers",
      "A I",
      "å¾ ·",
      "ne w",
      "è¿ ½",
      "iqu es",
      "æ¨¡ åŀĭ",
      "åĬĽ åĴĮ",
      "Ġhist ory",
      "ĠA l",
      "æĬķ èµĦ",
      "å°Ŀ è¯ķ",
      "an k",
      "Ġh ome",
      "éĴ Ł",
      "ä¸ °",
      "èĪĴ éĢĤ",
      "Ġincre ase",
      "Ġh ab",
      "åĪ »",
      "è¾ĵ åĩº",
      "Ġ 7",
      "Ġlead ing",
      "é£İ éĻ©",
      "Ġha pp",
      "Ġperform ance",
      "åŃ £",
      "Ġst and",
      "t y",
      "ç¦ ı",
      "Ġcustom ers",
      "åį İ",
      "Ġbel ie",
      "Ġcompan y",
      "å½ ķ",
      "é£Ł çī©",
      "ĠU n",
      "Ġsu mm",
      "re nt",
      "ĠC on",
      "éĢĤ éĩı",
      "Ġ i",
      "an ced",
      "Ġl ight",
      "Ġanaly sis",
      "å° Ĭ",
      "ĠU se",
      "ou se",
      "t ed",
      "Ġchar act",
      "Ġ #",
      "ç» ľ",
      "ä¸į æĺ¯",
      "Ġdevelop ing",
      "åŁ ¹",
      "t o",
      "Ġstrate gies",
      "Ġm ight",
      "çŁ Ń",
      "Ġf irst",
      "çļĦæ İ",
      "èĥ Į",
      "çĮ «",
      "Ġinclud es",
      "åĽ Ń",
      "Ġdi agn",
      "1 2",
      "Ġgrow th",
      "ä¸ĵ ä¸ļ",
      "Ġdo es",
      "ç» ¿",
      "Ġke ep",
      "è¯¦ ç»Ĩ",
      "åĥ ı",
      "åıĳ çĶŁ",
      "f act",
      "åı¯ä»¥ åľ¨",
      "ç« Ļ",
      "æĭ ī",
      "æµ İ",
      "Ġchat bots",
      "Ġbre ak",
      "è¡ ¡",
      "çŁ ³",
      "æĮģ ç»Ń",
      "l ife",
      "Ġ1 0",
      "æ´ Ĺ",
      "ĠAd ditionally",
      "å£ «",
      "em ber",
      "Ġgo als",
      "å¾ ®",
      "Ġv iew",
      "Â ·",
      "o ve",
      "åŁº ç¡",
      "Ġoptim ize",
      "Ġt em",
      "Ġd own",
      "åŁºç¡ Ģ",
      "è¶ ħ",
      "er cis",
      "Ġl ess",
      "e es",
      "æĿ ĥ",
      "Ġke y",
      "Ġwor ks",
      "è® ¨",
      "åı¥ åŃĲ",
      "Ġro bot",
      "us s",
      "åħ¨ çĲĥ",
      "ç»ı æµİ",
      "æīį èĥ½",
      "eg r",
      "ä»ĸä»¬ çļĦ",
      "äº Ķ",
      "èµ· æĿ¥",
      "ç ĵ",
      "Ġfact ors",
      "Ġcult ural",
      "æľ ¨",
      "Ġwork ing",
      "ä¼ ¼",
      "èĲ ½",
      "éĢŁ åº¦",
      "ä½ ı",
      "Ġeffect s",
      "å© ļ",
      "b r",
      "åİ ħ",
      "ra in",
      "åŃ¦ çĶŁ",
      "Ġp ar",
      "at form",
      "Ġens uring",
      "çĶ± äºİ",
      "Ġwor ds",
      "Ġm uch",
      "Ġm ar",
      "ç»ı éªĮ",
      "ä¸º äºĨ",
      "åĲĪ ä½ľ",
      "v en",
      "Ġ /",
      "Ġfinan cial",
      "or ies",
      "æ² »",
      "wor k",
      "Ġtechn iques",
      "æĭ¥ æľī",
      "ra p",
      "å° Ķ",
      "Ġ est",
      "\" )",
      "Ġavail able",
      "Ġl it",
      "æ ¹",
      "Ġeff icient",
      "el s",
      "o ver",
      "Ġl and",
      "Ġare a",
      "Ġint ellig",
      "Ġpre f",
      "at ure",
      "çŁ¥ è¯Ĩ",
      "æĵ įä½ľ",
      "å¾ ħ",
      "ig ate",
      "çļĦæ Ķ",
      "Ġme an",
      "b o",
      "Ġcontro l",
      "éĩĩ çĶ¨",
      "ric ult",
      "Ġprogra mm",
      "Ġto wards",
      "th ing",
      "ä¸į è¦ģ",
      "Ġth ough",
      "å½ ©",
      "Ġc ertain",
      "Ġw ild",
      "ä» Ĭ",
      "Ġcons ervation",
      "çŁ¥ éģĵ",
      "Ġreal ly",
      "çļĦ åľ°",
      "i o",
      "é¥ °",
      "Ġf ul",
      "çİ¯ ä¿Ŀ",
      "Ġexplo re",
      "çļĦæ ¸",
      "Ġdivers e",
      "åĬł å¼º",
      "çļ ®",
      "Ġemot ions",
      "Ġav oid",
      "' ll",
      "çļĦæ ī",
      "åį ¡",
      "Ġpl atform",
      "an ces",
      "Ġsit u",
      "ä» ĺ",
      "ä½į ç½®",
      "or ing",
      "çĽ Ĳ",
      "ä¸ ĩ",
      "Ġde v",
      "n ov",
      "as h",
      "Ġtw o",
      "å® ł",
      "b on",
      "èµ °",
      "åĪĹ è¡¨",
      "Ġc y",
      "èį Ĳ",
      "ĠS ome",
      "Ġexpl ain",
      "Ġa ware",
      "ç¤¾ äº¤",
      "d ay",
      "åı Į",
      "æ² ŁéĢļ",
      "æ° §",
      "å¼Ģ åıĳ",
      "åħ¬åı¸ çļĦ",
      "Ġa ir",
      "åĩ »",
      "ar ing",
      "éĥ½ æĺ¯",
      "Ġlevel s",
      "od s",
      "Ġste ps",
      "Ġc ap",
      "æ´ ŀ",
      "é© ¬",
      "Ġret urn",
      "Ġm et",
      "çĶŁ æĢģ",
      "ä¸° å¯Į",
      "æŁ ĵ",
      "æīĢ ä»¥",
      "é¡ »",
      "Ġ er",
      "3 0",
      "Ġf ra",
      "è ĵ",
      "âĢ Ķ",
      "Ġ å½ĵ",
      "ĠĠĠĠĠĠĠĠ ĠĠĠĠĠĠĠĠ",
      "a h",
      "ä¿ ĥ",
      "Ġlike ly",
      "åĪ Ŀ",
      "Ġcreat ing",
      "Ġf arm",
      "Ġb al",
      "Ġl ives",
      "å®ĥ çļĦ",
      "Ġab ility",
      "Ġsent ence",
      "ä¸Ĭ çļĦ",
      "åĤ ¨",
      "Ġr out",
      "Ġag ain",
      "Ġprovid es",
      "å®ł çī©",
      "éĢ Ĳ",
      "Ġyear s",
      "èŀ į",
      "Ġphys ical",
      "P ython",
      "ĠE x",
      "it ing",
      "è°ĥ æķ´",
      "ç½ĳ ç»ľ",
      "æħ ¢",
      "ç©º éĹ´",
      "åĽ °",
      "è± Ĩ",
      "æĽ´å¤ļ çļĦ",
      "ĠA r",
      "Ġmain tain",
      "å®ŀ éĻħ",
      "Ġtra vel",
      "Ġs at",
      "çĶµ åŃĲ",
      "p ro",
      "Ċ Ġ",
      "æ± ½",
      "åģ ĩ",
      "æĲ Ń",
      "e x",
      "éļı çĿĢ",
      "è¿ĺ æľī",
      "ç¤ ¼",
      "al e",
      "Ġcons um",
      "n cy",
      "Ġquest ions",
      "f ort",
      "m aking",
      "Ġdes c",
      "1 5",
      "Ġinvol ves",
      "Ġst ress",
      "åŃĹ ç¬¦",
      "Ġimpact s",
      "he re",
      "Ġex ercis",
      "åĿ ļ",
      "led ge",
      "ç§ĳ æĬĢ",
      "oc i",
      "Ġeffective ly",
      "æ¶Ī è´¹",
      "Ġconc lusion",
      "éĺ ħ",
      "Ġst re",
      "iss ions",
      "æ· »",
      "I t",
      "éĿ Ļ",
      "Ġv irtual",
      "è¡ £",
      "Ġachie ve",
      "our ce",
      "è¿ ŀ",
      "ac ks",
      "è¡¨ æł¼",
      "Ġimport ance",
      "èĩª æĪĳ",
      "The se",
      "n um",
      "Ġrelations hips",
      "çļĦæ ł",
      "Ġwork ers",
      "g ical",
      "or por",
      "ers on",
      "åĳ ¢",
      "nd s",
      "æİ¨ èįĲ",
      "oh n",
      "å¿ħ é¡»",
      "å®¹ æĺĵ",
      "ĠG o",
      "ĠR es",
      "Ġt ell",
      "on om",
      "Ġbe c",
      "æ³ Ľ",
      "Ġmo ve",
      "p os",
      "Ġst ory",
      "æŃ ¢",
      "Ġprior it",
      "Ġindust ries",
      "è ľ",
      "Ġposs ible",
      "Ġexp ress",
      "ĠM an",
      "ab ilities",
      "Ġint egr",
      "ä»£ è¡¨",
      "Ġrespon d",
      "åĪĨ éĴŁ",
      "æľº ä¼ļ",
      "Ġth ings",
      "äº¤ æµģ",
      "Ġm eth",
      "ur ther",
      "Ġw ide",
      "èĳ Ĺ",
      "æĪĳ çļĦ",
      "ĸçķ ¥",
      "eth ing",
      "id es",
      "ĠWh ile",
      "p an",
      "çŃ ĸçķ¥",
      "Ġc ent",
      "Ġp lease",
      "olo gy",
      "ura cy",
      "å¾ ª",
      "w ard",
      "n ce",
      "Ġthe n",
      "çª ģ",
      "å¥ ĩ",
      "Ġb lo",
      "a i",
      "æŀ Ĺ",
      "ç®Ĺ æ³ķ",
      "ç» ¼",
      "Ġpr int",
      "ac es",
      "l u",
      "ª æĸ½",
      "çļĦæĦ ı",
      "p re",
      "Ġs ol",
      "Ġover all",
      "h old",
      "Ġ es",
      "çļĦ ä¸Ģ",
      "éģ ĩ",
      "Ġpop ul",
      "å°ı è¯´",
      "æ³ ¢",
      "åį ģ",
      "ä¹Ł åı¯ä»¥",
      "Ġcont ent",
      "é£Ł åĵģ",
      "å° Ħ",
      "Ġrequ ires",
      "æ£Ģ æŁ¥",
      "ĊĠĠĠĠĠĠĠĠ ĠĠĠ",
      "Ġgrou ps",
      "Ġf air",
      "Ġb l",
      "å®ŀ éªĮ",
      "æĮī çħ§",
      "os p",
      "st r",
      "ä¸į èĥ½",
      "Ġh arm",
      "Ġpro du",
      "çļĦæĬ Ģ",
      "ç ĩ",
      "t le",
      "Ġanim als",
      "è§Ĵ èī²",
      "le v",
      "æ¸ Ĳ",
      "å¤į æĿĤ",
      "Ġde pend",
      "æĮ ĳæĪĺ",
      "ĠĠĠĠ Ġ",
      "åĮħ åĲ«",
      "Ġhelp s",
      "Ġop en",
      "Ġn et",
      "Ġstr ong",
      "Ġj our",
      "å¹¿ æ³Ľ",
      "æķ´ ä¸ª",
      "Ġe lect",
      "Ġrespon se",
      "åįķ è¯į",
      "æľ ĭ",
      "Ġ <",
      "åĮĸ åŃ¦",
      "éĴ Ī",
      "Ġqu ick",
      "ual ly",
      "Ġsom ething",
      "Ġtra ck",
      "åº¦ åĴĮ",
      "eren ces",
      "æł ĳ",
      "Ġacc uracy",
      "Ġex c",
      "Ġfiel d",
      "é£ ŀ",
      "å¯» æī¾",
      "éħ ¸",
      "Ġh ope",
      "ç ĳ",
      "Ġin nov",
      "ç» ª",
      "al k",
      "Ġtyp es",
      "Ġd id",
      "åĬ ª",
      "Ġc all",
      "è¯ Ĺ",
      "Ġear ly",
      "ĠO ne",
      "a pp",
      "Ġcomm on",
      "Ġche ck",
      "æľĢ ç»Ī",
      "Ġs ym",
      "çĤ Ĵ",
      "æĬĢ èĥ½",
      "Ġen h",
      "Ġim m",
      "Ġag ricult",
      "ç» ĩ",
      "æ»¡ è¶³",
      "Ġs chool",
      "Ġfollow ing",
      "b al",
      "b ased",
      "Ġwe bs",
      "Ġcult ure",
      "ĠC om",
      "w ay",
      "ä¸Ģ å®ļ",
      "åķĨ åĵģ",
      "ud e",
      "çļĦ åıĳå±ķ",
      "çĶŁ äº§",
      "os ystem",
      "Ġpl ant",
      "åı ¶",
      "åĲ ĥ",
      "ä»ĸ çļĦ",
      "è¯ ¢",
      "d er",
      "å®¶ åħ·",
      "Ġf ree",
      "ç§ »",
      "æİ Į",
      "Ġb ody",
      "Ġp resent",
      "Ġpartic ularly",
      "Ġstud ent",
      "Ġchild ren",
      ") .",
      "çī¹ å¾ģ",
      "è Ķ",
      "éĺħ è¯»",
      "Ġprogra m",
      "æķĪ çİĩ",
      "éħ ±",
      "åıĺ å¾Ĺ",
      "i x",
      "Ġcom e",
      "ĠT e",
      "çļĦæ ²",
      "ĠT o",
      "åħ± åĲĮ",
      "Ġemploy ees",
      "è¯´ æĺİ",
      "Ġhe art",
      "Ġm ot",
      "æľĭ åıĭ",
      "er ic",
      "è¯ ĳ",
      "Ġcur rent",
      "æĪĲ æľ¬",
      "Ġto o",
      "çİ© å®¶",
      "åĪĽ æĸ°",
      "Ġec osystem",
      "å¸¸ è§ģ",
      "ä¸Ģ æŃ¥",
      "Ġp res",
      "Ġmult i",
      "åĳĬ è¯ī",
      "ä¸ ¥",
      "Ġm it",
      "Ġact ion",
      "çĨ Ł",
      "Ġhab it",
      "åı£ æĦŁ",
      "ç® ±",
      "Ġus es",
      "å¢ŀ å¼º",
      "ç»Ļ åĩº",
      "Ġ 9",
      "Ġde p",
      "Ġeconom ic",
      "æĢ§ çļĦ",
      "1 8",
      "åĨ °",
      "Ġhelp ed",
      "åĲ¸ å¼ķ",
      "çİ ĭ",
      "Ġdiagn os",
      "å ł",
      "èģĶ ç³»",
      "ç¾ ¤",
      "ç»ĥ ä¹ł",
      "æĪĲ éķ¿",
      "Ġpo int",
      "å®ļ æľŁ",
      "åĳ ¼",
      "èį ¯",
      "æĿ ¯",
      "æ¤ Ĵ",
      "æķĪ æŀľ",
      "Ġspec ial",
      "æ· ·",
      "åĩł ä¸ª",
      "aus e",
      "é Ĩ",
      "æ¯Ķ èµĽ",
      "è· Ŀ",
      "W hat",
      "Ġt imes",
      "ic les",
      "Ġ *",
      "ç´ §",
      "å¦Ĥæŀľ ä½ł",
      "çĭ¬ çī¹",
      "çģ µ",
      "ç¨ İ",
      "Ġcar bon",
      "Ġbi as",
      "åĬ© äºİ",
      "Ġcon st",
      "èĩª çĶ±",
      "æĿ¥ è¯´",
      "å°± æĺ¯",
      "åį °",
      "Ġme et",
      "è§Ħ åĪĴ",
      "çļĦç ¾",
      "èĲ¥ åħ»",
      "at ors",
      "ç¨³ å®ļ",
      "od e",
      "çħ ®",
      "Ġass oci",
      "å¿ Ĺ",
      "è¡Į æĺŁ",
      "æĿ İ",
      "Ġrev iew",
      "åĩ Ģ",
      "ĠR o",
      "Ġknow ledge",
      "ä»¥ ä¾¿",
      "æµĭ è¯ķ",
      "åĲĪ éĢĤ",
      "s c",
      "å½¢ å¼ı",
      "Ġfriend s",
      "Ġnat ure",
      "Ġcrit ical",
      "æ´ ĭ",
      "Ġa fter",
      "Ġre ce",
      "er ve",
      "çļĦæ Ń",
      "æ±½ è½¦",
      "' ,",
      "çķ Į",
      "Ġlo ss",
      "Ġapp lications",
      "å¤ļ ç§į",
      "éĶ ħ",
      "ä¸ ²",
      "Ġins p",
      "-- -",
      "ĠS h",
      "Ġv ol",
      "l ut",
      "o ks",
      "se qu",
      "Ġb ir",
      "åĲĪ çĲĨ",
      "Ġne cess",
      "æĪĳ æĥ³",
      "çŃī æĸ¹éĿ¢",
      "é¼ ĵ",
      "Ġso ft",
      "Ġl ive",
      "å°ı æĺİ",
      "ĠI nd",
      "Ġbr ing",
      "æĺ¯ æĮĩ",
      "Ġso il",
      "il ar",
      "ä¸ ľ",
      "æĿ¡ ä»¶",
      "Ġt ri",
      "äº ®",
      "Ġm om",
      "æı ¡",
      "ä¼ °",
      "ŀ äºī",
      "çĽ ĳ",
      "èĤ ¤",
      "è´¢ åĬ¡",
      "æ·» åĬł",
      "é¥® é£Ł",
      "Ġallow ing",
      "åº ķ",
      "Ġr ight",
      "Ġexp ert",
      "Ġsu pp",
      "Ġin it",
      "çļĦæ µ",
      "ar get",
      "Ġexp ect",
      "Ġ1 9",
      "Ġmeas ures",
      "olut ions",
      "j ust",
      "ar c",
      "å° ļ",
      "Ġpract ice",
      "æľī åĬ©äºİ",
      "å¤§ éĩı",
      "im ent",
      "Ġcontin ue",
      "Ġdisc uss",
      "1 00",
      "éļ ľ",
      "çļĦæĦ Ł",
      "Ġref lect",
      "it ation",
      "åį «",
      "äºĨ ä¸Ģ",
      "ĠL e",
      "ne y",
      "is ed",
      "è¶ ĭ",
      "äºĨ ä¸Ģä¸ª",
      "Ġincre asing",
      "çļĦæ Į",
      "Ġst ru",
      "æĢ» ç»ĵ",
      "e ly",
      "å® ĩ",
      "Ġaut hor",
      "è¡¨ éĿ¢",
      "Ġ x",
      "æķħ äºĭ",
      "em ic",
      "Ġrep resent",
      "g er",
      "Ġincre ased",
      "on es",
      "ain s",
      "Ġtrain ed",
      "Ġf ish",
      "Ġst ate",
      "åĨ ·",
      "çĶŁ éķ¿",
      "Ġre new",
      "ord ing",
      "åĮ Ĺ",
      "æİ ªæĸ½",
      "å¹³ è¡¡",
      "Ġsuccess ful",
      "ä¸ĭ éĿ¢",
      "Ġactiv ity",
      "èĮ ¶",
      "éĢĤ åºĶ",
      "èĦ ĳ",
      "æİ¢ ç´¢",
      "ff ic",
      "ç»Ħ æĪĲ",
      "at ives",
      "äº ļ",
      "Ġsc en",
      "æ² Ļ",
      "g ress",
      "ä½¿ å¾Ĺ",
      "æī ¿",
      "Ġdisc rim",
      "Ġassist ants",
      "Ġex ist",
      "Ġsp ace",
      "çķ Ļ",
      "æľĢ è¿ĳ",
      "Ġide as",
      "éĩĩ åıĸ",
      "l ight",
      "æ³¨ éĩį",
      "çļĦæĹ¶ éĹ´",
      "è¿ İ",
      "Ġcom b",
      "Ġyour self",
      "éĢĤ å½ĵ",
      "rit e",
      "as on",
      "åĮ Ģ",
      "åı¯ä»¥ ä½¿çĶ¨",
      "åħħ æ»¡",
      "Ġval ues",
      "æ ½",
      "Ġbi ases",
      "ä¿ĥ è¿Ľ",
      "åľº æĻ¯",
      "ro ss",
      "åį³ åı¯",
      "Ġc ru",
      "Ġnum ber",
      "Ġty pe",
      "r ast",
      "åĩĨ ç¡®",
      "Ġp ast",
      "Th is",
      "çģ ¯",
      "å®ļ ä¹ī",
      "Ġs olutions",
      "Ġt er",
      "ä¿Ŀ è¯ģ",
      "èĶ ¬",
      "å¹ ¸",
      "åī §",
      "åħ´ è¶£",
      "å ª",
      "ent ion",
      "av or",
      "Ġsc ient",
      "åĬª åĬĽ",
      "Ġprovid ers",
      "Ġpolic ies",
      "al u",
      "ĠI m",
      "Ġallow s",
      "Ġintellig ence",
      "çļĦ æĸ¹æ³ķ",
      "è¿Ļ æĺ¯",
      "Ġ `",
      "Ġem issions",
      "Ġ å°Ĩ",
      "Ġmean ing",
      "Ġst yle",
      "åİŁ åĽł",
      "Ġstru gg",
      "çļĦç¾ İ",
      "if ul",
      "dit ion",
      "éĥ½ æľī",
      "ç©º æ°Ķ",
      "å®ĥä»¬ çļĦ",
      "ä¼ĺ åĮĸ",
      "Ġinf lu",
      "Ġdetail s",
      "åŁº äºİ",
      "Ġtranspare ncy",
      "Ġm ess",
      "ĠC l",
      "Ġg ame",
      "p ri",
      "è¶ĭ åĬ¿",
      "å½ Ĵ",
      "ç¿» è¯ĳ",
      "æķ £",
      "B y",
      "é Ń",
      "ĠAm eric",
      "Ġproduct ion",
      "Ġinc orpor",
      "æĻ ļ",
      "Ġinvol ve",
      "Ġh ot",
      "æĻ ®",
      "Ġf low",
      "b y",
      "Ġem erg",
      "åº §",
      "Ġide a",
      "åİĭ åĬĽ",
      "éĿ Ĵ",
      "om s",
      "èģĮ ä¸ļ",
      "Ġre port",
      "Ġp ap",
      "Ġthe rap",
      "Ġs al",
      "åıĤ ä¸İ",
      "æĸĩ åŃ¦",
      "æĲŃ éħį",
      "o ot",
      "Ġc r",
      "Ġprocess es",
      "g in",
      "å¹³ åı°",
      "å¯ Ł",
      "Ġpromot ing",
      "æļ ĸ",
      "ake hold",
      "ç» §",
      "iv er",
      "æ ¦Ĥ",
      "Ġmodel s",
      "Ġd ra",
      "è ĸ",
      "Ġgrou p",
      "è¶³ å¤Ł",
      "Ġg reen",
      "Ġhealth y",
      "Ġcom fort",
      "Ġad ditional",
      "ä¸Ģ æ¬¡",
      "é¤Ĳ åİħ",
      "Ġmaterial s",
      ", \"",
      "Ġman age",
      "çļĦæ ¯",
      "ä¼ ¤",
      "åıĬ æĹ¶",
      "Ġg lo",
      "Ġst at",
      "å¿« éĢŁ",
      "Ġmonitor ing",
      "ail y",
      "ra nd",
      "o ice",
      "res h",
      "ç»Ħ ç»ĩ",
      "Ġund er",
      "Ġnecess ary",
      "Ġhelp ful",
      "ĠC ol",
      "é»ĳ æ´ŀ",
      "åģļ åĩº",
      "Ġcour se",
      "Ġm at",
      "Ġle g",
      "Ġf ace",
      "ä» ¤",
      "èī¯ å¥½çļĦ",
      "oc k",
      "åĮ» çĸĹ",
      "çĽ ĸ",
      "id ence",
      "Ġpro gress",
      "Ġassoci ated",
      "åľ Ĩ",
      "Ġevery one",
      "ĠEn g",
      "ç¼ ĵ",
      "w ord",
      "èĵ Ŀ",
      "å¤© æ°Ķ",
      "Ġact ions",
      "em s",
      "ĠP l",
      "å® Ļ",
      "us h",
      "é¡ ¾",
      "Ġcost s",
      "at or",
      "ç© ¿",
      "Ġamount s",
      "èĶ¬ èıľ",
      "Ġman ner",
      "Ġcon sequ",
      "æ°Ķ åĢĻ",
      "Ġins ights",
      "be ing",
      "at ory",
      "en er",
      "le x",
      "Ġme ans",
      "Ġcollabor ation",
      "Ġpers pect",
      "or m",
      "pri ate",
      "å°Ĭ éĩį",
      "Ġt arget",
      "è®° å½ķ",
      "åĢ Ĵ",
      "Ġrenew able",
      "æĦ ¿",
      "èĥ½ æºĲ",
      "Ġin put",
      "å®ĩ å®Ļ",
      "a pe",
      "Ġad just",
      "er ies",
      "Ġd ire",
      "ä¾ Ŀ",
      "ust r",
      "f ect",
      "Ġd ue",
      "Ġbeaut iful",
      "re ci",
      "çĮ ®",
      "èĥĮ æĻ¯",
      "èĤ ¡",
      "Ġd am",
      "i k",
      "Ġadv anced",
      "çĽ¸ å¯¹",
      "åĲį ç§°",
      "Ġsh ort",
      "Ġob ject",
      "è¿Ļ éĩĮ",
      "éĢł æĪĲ",
      "èĲ¥ éĶĢ",
      "âĢĿ ,",
      "çļĦæĥħ æĦŁ",
      "ç¥ ¨",
      "Ġcount ries",
      "in ing",
      "ist ic",
      "Ġpl ans",
      "è´£ ä»»",
      "Ġst akehold",
      "Ġass ess",
      "æĢĿ èĢĥ",
      "e ch",
      "2 1",
      "æĪĲ åĳĺ",
      "Ġd aily",
      "Ġcomp ut",
      "çļĦæĥħ åĨµ",
      "æıĲ åĩº",
      "Ġ âĢľ",
      "åª Ĵ",
      "ä¸Ń å¿ĥ",
      "is hed",
      "t he",
      "ĠS e",
      "onom ous",
      "er n",
      "ç»´ æĬ¤",
      "am es",
      "Ġpriorit ize",
      "çº ¸",
      "èĤ ¥",
      "Ġtem per",
      "æ¸ħ æ´ģ",
      "æ± ¡",
      "us e",
      "Ġmin im",
      "æĺ¯ åľ¨",
      "å¤§ å°ı",
      "åĵª äºĽ",
      "Ġapp reci",
      "ren g",
      "Ġregul ations",
      "Ġ Z",
      "éĶĻ è¯¯",
      "r ans",
      "èĢĮ ä¸Ķ",
      "èĪ ¬",
      "èĳ ±",
      "è Ĩ",
      "æ°´ å¹³",
      "è´Ń çī©",
      "åŃĹç¬¦ ä¸²",
      "å¯¹ æĸ¹",
      "Ġh im",
      "Ġconsequ ences",
      "å· ´",
      "é¼ĵ åĬ±",
      "Ġf il",
      "äºº åĳĺ",
      "è·Ŀ ç¦»",
      "ĠW hen",
      "çļĦæ° ´",
      "çī© çĲĨ",
      "åĲĮæĹ¶ ä¹Ł",
      "åľ¨ è¿Ļä¸ª",
      "åħ¶ æ¬¡",
      "æ¶ ²",
      "çĶ ·",
      "iv al",
      "åı¯ä»¥ è®©",
      "æĥ ¯",
      "Ġadv ance",
      "Ġve h",
      "å¦Ĥæŀľ æĤ¨",
      "Ġest ab",
      "ri pt",
      "ç« ¯",
      "ä¸į ä¼ļ",
      "Ġtranspare nt",
      "æķ° éĩı",
      "çĽ ĺ",
      "Ġspe ak",
      "Ġp ark",
      "Ġstakehold ers",
      "é º",
      "Ġev ent",
      "çļĦæķ° æį®",
      "èĩª åĬ¨",
      "ç»Ĩ èĬĤ",
      "è¯Ħ ä¼°",
      "æ¶ ¦",
      "Ġpref erences",
      "Ġve get",
      "Ġg l",
      "æį Ł",
      "e qu",
      "Ġp ain",
      "Ġtra ffic",
      "o gra",
      "Ġo ce",
      "ä¹ ĺ",
      "Ġan other",
      "e xt",
      "å¤ļ å°ĳ",
      "Ġagain st",
      "ç»ı åİĨ",
      "è®¡ç®Ĺ æľº",
      "èĢ Ĳ",
      "ĠP re",
      "è½¯ ä»¶",
      "Ġpl ants",
      "çĽ¸ äºĴ",
      "é¢ ĳ",
      "\\ _",
      "Ġs ame",
      "ru g",
      "Ġval u",
      "Ġo cc",
      "çļĦç ¤",
      "Ġsustain ability",
      "ĠS he",
      "ot e",
      "Ġd ig",
      "d e",
      "N A",
      "Ġcru cial",
      "æī §",
      "å± Ģ",
      "æĭ Ł",
      "æĭ Į",
      "Ġn on",
      "Ġeng aging",
      "Ġinter n",
      "L P",
      "æ¸© åº¦",
      "æł ¸",
      "æĬ¥ åĳĬ",
      "æĿ¥ è¶Ĭ",
      "h ood",
      "ä¸ī ä¸ª",
      "å¦Ĥ ä¸ĭ",
      "çī© ä½ĵ",
      "for ce",
      "Ġneed ed",
      "Ġim ages",
      "Ġbuild ing",
      "Ġ æĪĳ",
      "ici ous",
      "è¶Ĭ æĿ¥è¶Ĭ",
      "æĶ¾ åħ¥",
      "g o",
      "éĻį ä½İ",
      "å½ĵ åľ°",
      "æ¶Īè´¹ èĢħ",
      "ç £",
      "ivers ity",
      "é¢Ħ ç®Ĺ",
      "ic le",
      "æ·· åĲĪ",
      "Ġpartic ip",
      "Ġdis hes",
      "Ġthrough out",
      "Ġwith in",
      "åı ³",
      "Ġph ot",
      "é«ĺ çļĦ",
      "Ġtr ust",
      "æĦı è¯Ĩ",
      "ä»¥ ç¡®ä¿Ŀ",
      "çĬ¶ æĢģ",
      "Ġautom ation",
      "1 1",
      "Ġpo st",
      "æīĭ æľº",
      "wor ks",
      "éĢ ı",
      "åº ĵ",
      "Ġw ind",
      "Ġ= =",
      "Ġprocess ing",
      "èĮĥ åĽ´",
      "æĦı ä¹ī",
      "è¿½ æ±Ĥ",
      "Ã ©",
      "å¾ Ħ",
      "éĿ ł",
      "ä¸ ĸ",
      "èĻ ½",
      "ç« ŀäºī",
      "Ġappro priate",
      "æĽ´ å¥½çļĦ",
      "Ġcharact er",
      "ç§ ĺ",
      "c l",
      "it ude",
      "Ġte ac",
      "le ep",
      "ĠDe velop",
      "in ce",
      "å· ¦",
      "g round",
      "è¡Į ä¸ļ",
      "éĴĪ å¯¹",
      "å¿ħ è¦ģ",
      "Ġdet erm",
      "-------- --------",
      "Ġst reng",
      "d o",
      "Ġchalleng ing",
      "or k",
      "Ġan x",
      "èī² çļĦ",
      "Ġh ard",
      "æĺİ ç¡®",
      "åĪĨ äº«",
      "æĶ¹ åıĺ",
      "ä½ ³",
      "åıª æľī",
      "å±ķ ç¤º",
      "Ġcam p",
      "çº ³",
      "a j",
      "et ic",
      "u ment",
      "ä½ł åı¯ä»¥",
      "Ġpol lut",
      "Ġh ig",
      "pp ing",
      "e ad",
      "çĦ¶ èĢĮ",
      "ç¬¬ äºĮ",
      "é¸ Ł",
      "çī© åĵģ",
      "ä¸ ¾",
      "Ġencoura ge",
      "pe cial",
      "Ġac ross",
      "el ves",
      "äºĭ ä»¶",
      "c le",
      "æ ©",
      "åªĴ ä½ĵ",
      "n ers",
      "Ġc al",
      "èĻ½ çĦ¶",
      "åĽ º",
      "ä¹ł æĥ¯",
      "Ġsaf e",
      "èĥ½ éĩı",
      "ist ics",
      "ä¹ĭ åīį",
      "Ġiss ue",
      "å¤ļ ä¸ª",
      "åĨ³ çŃĸ",
      "è¾¾ åĪ°",
      "æĹ ©",
      "ä¸į åı¯",
      "ä¸Ģ çĽ´",
      "å· ¨",
      "ĠN ew",
      "æĦŁ è°¢",
      "ä¸Ģ æ®µ",
      "Ġmach ines",
      "å°Ĩ åħ¶",
      "ç»§ ç»Ń",
      "Ġwor d",
      "çī¹ åĪ«",
      "Ġagricult ure",
      "æĢ İ",
      "éĢĲ æ¸Ĳ",
      "éĵ ¾",
      "Ġk ind",
      "è¯ ¾",
      "å¢ Ļ",
      "è°¢ è°¢",
      "Ġalgorith m",
      "è£ħ é¥°",
      "Ġal ong",
      "Ġeas y",
      "äº ĳ",
      "è§£åĨ³ æĸ¹æ¡Ī",
      "Ġaware ness",
      "' ve",
      "æĸ¹ åĲĳ",
      "Ġne ver",
      "Ġquick ly",
      "Ġres pect",
      "çļĦæ Ļ",
      "Ġam ong",
      "Ġaccount ability",
      "Ġl aw",
      "en ing",
      "Ġdef in",
      "Ġsur round",
      "éĵ ģ",
      "Ġpower ful",
      "Ġcaus e",
      "A n",
      "æ ¥",
      "æİĮ æı¡",
      "è¿ĺ æĺ¯",
      "Ġcreat ive",
      "è¡ Ģ",
      "Ġloc ated",
      "un ning",
      "åľ° åĮº",
      "éĿ¢ ç§¯",
      "éĽ ¨",
      "Ġne ar",
      "Ġinit i",
      "ress ion",
      "ä¸ĭ æĿ¥",
      "2 5",
      "é© ¶",
      "¾ çĹħ",
      "ab les",
      "æľī è¶£",
      "å¾ª çİ¯",
      "çŃĶ æ¡Ī",
      "çł ´",
      "ic ation",
      "éĻ ¢",
      "æ²» çĸĹ",
      "Ġad dition",
      "äºĭ æĥħ",
      "Ġbec ause",
      "åı Ī",
      "èĤ Į",
      "çº ª",
      "s ide",
      "æĭ ħ",
      "æ¹ ¿",
      "åį Ĭ",
      "é¡ º",
      "ĠA nd",
      "Ġrestaur ant",
      "Ġv ide",
      "Ġproble m",
      "az ing",
      "Ġmem bers",
      "Ġn ut",
      "Ġc ou",
      "ĠĠĠĠ ĠĠ",
      "æµ ª",
      "Ġ è¿Ļ",
      "Ġhelp ing",
      "ĠI s",
      "æıĲ åįĩ",
      "Ġsh o",
      "Ġre lev",
      "Ġar g",
      "ill ed",
      "Ġbal ance",
      "æĺ¯ ä»Ģä¹Ī",
      "åĬĽ éĩı",
      "ire d",
      "å¤ ľ",
      "åı¯ æĮģç»Ń",
      "Ġper fect",
      "* *",
      "ific ation",
      "æ¶ ī",
      "Ġwild life",
      "an e",
      "Ġrel ated",
      "å®¤ åĨħ",
      "åº ľ",
      "äº« åıĹ",
      "our s",
      "è· ĳ",
      "åķĨ ä¸ļ",
      "ach ing",
      "Ġsu n",
      "Ġrecogn ition",
      "el t",
      "Ġor der",
      "å¹³ åĿĩ",
      "g ing",
      "ä¸ ´",
      "çĤ ¼",
      "Ġgo ing",
      "åĳ¼ åĲ¸",
      "Ġsoft ware",
      "Ġre mot",
      "èĳĹ åĲį",
      "å¹¸ ç¦ı",
      "Ġenh ance",
      "èĻ ļ",
      "Ġn ow",
      "Ġth reat",
      "Ġd est",
      "åĿĩ åĮĢ",
      "Ġac ad",
      "åºĶ å¯¹",
      "çľĭ åĪ°",
      "c ast",
      "] ,",
      "è¾ Ĩ",
      "ific ial",
      "Ġ very",
      "o ok",
      "åĮº åŁŁ",
      "¹ ģ",
      "æĪ¿ éĹ´",
      "æıĲä¾Ľ äºĨ",
      "Ġmot iv",
      "Ġaccess ible",
      "Ġh y",
      "åĨ³ å®ļ",
      "å® Ī",
      "Ġf lo",
      "u g",
      "Ġinform ed",
      "åĵģ è´¨",
      "çļĦç Ł",
      "av es",
      "ar r",
      "ĠW ith",
      "le t",
      "è§Ĥ çĤ¹",
      "en ge",
      "è¡Į åĬ¨",
      "f riend",
      "ç³ ķ",
      "Ġf urther",
      "ĠE ns",
      "ç§ ģ",
      "Ġad o",
      "Ġcle an",
      "çĽ¸ åºĶ",
      "Ġf re",
      "pecial ly",
      "è Ĺ",
      "Ġc apt",
      "çļĦç ľ",
      "Ġsome one",
      "Ġc ell",
      "æĶ¾ åľ¨",
      "æ¬¢ è¿İ",
      "Ġdev ices",
      "çļĦ æĸ¹å¼ı",
      "Ġjob s",
      "au gh",
      "æľī äºĽ",
      "n ot",
      "åħ¬ åħ±",
      "g est",
      "çļĦ çĶŁæ´»",
      "çľ ¼",
      "çļĦ ä¿¡æģ¯",
      "ĠC ons",
      "æİĴ åºı",
      "Ġbenef it",
      "re ct",
      "å¤ ı",
      "un te",
      "ç¬¦ åĲĪ",
      "ä¸Ģ ä½į",
      "åĨħ éĥ¨",
      "Ġlook ing",
      "d ing",
      "æĬ ĺ",
      "è¾ ĳ",
      "è¿Ļä¸ª éĹ®é¢ĺ",
      "Ġes pecially",
      "çľ ł",
      "âĢĿ ãĢĤ",
      "å¥ ı",
      "ra y",
      "è¿ĺ åı¯ä»¥",
      "åĪĽ ä½ľ",
      "com ing",
      "Ġmulti ple",
      "éļ Ĳ",
      "æ³ ¡",
      "æłĩ åĩĨ",
      "Ġm il",
      "éľĢè¦ģ æ³¨æĦı",
      "Ġanx iety",
      "æĶ¹ è¿Ľ",
      "å± ĭ",
      "æ±¡ æŁĵ",
      "ç¼ĸ ç¨ĭ",
      "è´¹ çĶ¨",
      "Ġev alu",
      "imate ly",
      "Ġlit er",
      "ogra ph",
      "Ġse arch",
      "1 6",
      "en ced",
      "Ġmeth ods",
      "çĥ Ī",
      "æ¨¡ å¼ı",
      "çĬ¶ åĨµ",
      "æĶ¹ åĸĦ",
      "å¤ļ æł·",
      "c er",
      "å¥ ĸ",
      "Ġsat is",
      "Ġwebs ite",
      "åĬ ŀ",
      "åģ¥ èº«",
      "Ġglo bal",
      "Ġas k",
      "Ġplatform s",
      "Ġdise ases",
      "Ġ âĢ",
      "çİ° è±¡",
      "t ics",
      "æ± ģ",
      "åĪ¤ æĸŃ",
      "Ġcon vers",
      "Ġrelations hip",
      "è®¾ ç½®",
      "æ³ķ å¾ĭ",
      "Ġmind ful",
      "é¢Ħ æµĭ",
      "o very",
      "åģ ľ",
      "çĶµ è§Ĩ",
      "è§Ħ åĪĻ",
      "ak en",
      "Ġimplement ing",
      "is ing",
      "åıĤ åĬł",
      "æĥħ ç»ª",
      "Ġprovid ed",
      "æ·± åħ¥",
      "Ġprogramm ed",
      "Ġrelev ant",
      "çļĦç ĥ",
      "çĸ ¾çĹħ",
      "åĮ» çĶŁ",
      "åĪĽ å»º",
      "Ġgener ate",
      "æĶ¶ åħ¥",
      "ä¼ ĳ",
      "iz es",
      "Ġtrans form",
      "éģ µ",
      "ast ic",
      "åĳ Ī",
      "æ¯ı ä¸ªäºº",
      "è¿ Ķ",
      "i et",
      "Ġv oice",
      "éĢ Ķ",
      "æĶ¾ æĿ¾",
      "åį ´",
      "èĥ ľ",
      "Ġst ructure",
      "æĹ¶ å°ļ",
      "Ġ Q",
      "Ġel se",
      "du c",
      "Ġem p",
      "èģ ļ",
      "è´ §",
      "ac hes",
      "ç§ Ģ",
      "an ks",
      "Ġn ight",
      "Ġprofessional s",
      "Ġb as",
      "è´ µ",
      "e c",
      "Ġdivers ity",
      "it es",
      "d r",
      "åĽ° éļ¾",
      "ĥ åľ",
      "åŀ ĥåľ",
      "åŀĥåľ ¾",
      "Ġn ame",
      "Ġd rug",
      "ç¢ ³",
      "åĮĸ çļĦ",
      "a id",
      "æľĢ å¤§",
      "æĳ Ħ",
      "ç®Ģåįķ çļĦ",
      "Ġw arm",
      "Ġd one",
      "Ġfun ction",
      "as c",
      "å¼º è°ĥ",
      "Ġdem and",
      "Ġvis ual",
      "Ġup d",
      "æŃ£ åľ¨",
      "Ġsim ilar",
      "éĢ Ĵ",
      "æ¯ Ľ",
      "éĶ »",
      "ent ly",
      "Ġvalu able",
      "Ġdis aster",
      "ä¸Ģ èĪ¬",
      "Â °",
      "æ´ ²",
      "ĠR eg",
      "Ġdiscrim ination",
      "åĨĻ ä¸Ģç¯ĩ",
      "Ġgovern ment",
      "Ġ å¥½çļĦ",
      "5 00",
      "ly ing",
      "Ġpre v",
      "Ġpre pare",
      "Ġproble ms",
      "è· ³",
      "Ġpro m",
      "åĨ ²",
      "å®ī è£ħ",
      "éĶ» çĤ¼",
      "æµ ĵ",
      "è ¹",
      "åºĶçĶ¨ ç¨ĭåºı",
      "Ġcomp et",
      "n g",
      "åĪĨ åĪ«",
      "olo gical",
      "å® ¡",
      "Ġtrans l",
      "Ġdire ct",
      "åī Ĥ",
      "Ġsuggest ions",
      "Ġpap er",
      "Ġrecogn ize",
      ") )",
      "Ġmit igate",
      "t on",
      "è®¨ è®º",
      "äºĴ åĬ¨",
      "ĠE ar",
      "Ġam azing",
      "c re",
      "é¦ Ī",
      "Ġinvol ved",
      "f ace",
      "æľī åħ³",
      "Ġex ce",
      "Ġproduct ivity",
      "è Ń",
      "é¦ Ĩ",
      "Ġsound s",
      "Ġidentify ing",
      "é¾ Ļ",
      "Ġf it",
      "Ġcontribut e",
      "th s",
      "e le",
      "if ied",
      "friend ly",
      "iven ess",
      "Ġ X",
      "ite ly",
      "Ġl ed",
      "åĿ ı",
      "Ġ }",
      "Ġhist or",
      "Ġd at",
      "Ġjour ney",
      "Ġse lect",
      "æ¼ «",
      "Ġcon duct",
      "è¿Ľ ä¸ĢæŃ¥",
      "ç»Ļ æĪĳ",
      "Ġl if",
      "è£ħ ä¿®",
      "ä¸º ä»Ģä¹Ī",
      "äº ¬",
      "Ġn av",
      "Ġwho le",
      "ç ¹ģ",
      "åĨ ľ",
      "æĶ »",
      "Ġb reat",
      "Ġm iss",
      "é¾ Ħ",
      "t t",
      "s w",
      "Ġb ar",
      "è¯· éĹ®",
      "èģĶ ç½ĳ",
      "Ġatt ract",
      "æĤ¨ åı¯ä»¥",
      "O ne",
      "åħħ åĪĨ",
      "r ing",
      "Ġå½ĵ çĦ¶",
      "re am",
      "Ġev ol",
      "Ġs n",
      "ĠE m",
      "m osp",
      "Ġcho ose",
      "Ġar r",
      "v iew",
      "Ġs leep",
      "end ed",
      "æŀ ¶",
      "Ġf resh",
      "Ġveh icles",
      "Ġorganiz ation",
      "è¿Ļ æ®µ",
      "æ± ¤",
      "ĠI nt",
      "Ġcont ext",
      "åı¦ å¤ĸ",
      "Ġoce an",
      "æĦŁ åıĹ",
      "Ġpollut ion",
      "ur b",
      "æī§ è¡Į",
      "erson al",
      "ĠHe alth",
      "ä¼ĺ çĤ¹",
      "Ġatt ention",
      "æľī çĿĢ",
      "é£Ł æĿĲ",
      "Ġer r",
      "çļĦæĿ ¥",
      "çļĦç Ī",
      "èŃ ¦",
      "è· Ł",
      "æĹħ è¡Į",
      "èĴ ľ",
      "çļĦæĢ Ŀ",
      "Ġchat bot",
      "çļĦ éľĢæ±Ĥ",
      "çķ ¥",
      "Ġfeel ing",
      "Ġimplement ed",
      "ç¤¾ åĮº",
      "çļĦ å»ºè®®",
      "æĲ ħ",
      "éĹ »",
      "åıį é¦Ī",
      "çĽ´ æİ¥",
      "æĺ ¥",
      "it able",
      "æĪĳ ä¼ļ",
      "åį ±",
      "èī¯ å¥½",
      "Ġl iving",
      "åıĺ éĩı",
      "ĠB ut",
      "Ġcomple te",
      "Ġtre nds",
      "Ġm akes",
      "ä»Ĭ å¤©",
      "Ġdist ribut",
      "Ġcomm it",
      "\" :",
      "Ġat mosp",
      "ä¼ ´",
      "Ġsens ors",
      "Ġs w",
      "æĹł è®º",
      "om en",
      "æĶ¿ åºľ",
      "Ġchall enge",
      "Ġt urn",
      "çĲĨ è®º",
      "Ġwrit e",
      "p ar",
      "ç»ı åħ¸",
      "em ember",
      "é¥ Ń",
      "æĸ¹ ä¾¿",
      "Ġc u",
      "Ġval ue",
      "Ġf und",
      "p ose",
      "è°ĥ æŁ¥",
      "çĿ ¡",
      "Ġcommunic ate",
      "Ġdise ase",
      "Ġrese arc",
      "Ġl ack",
      "arn ing",
      "ĠP ark",
      "çĦ ¦",
      "é«ĺ åº¦",
      "Ġr ather",
      "å® £",
      "çĪ ¶",
      "éĺ ¶",
      "è® ¢",
      "çĥ §",
      "Ġhig her",
      "Ġsumm ary",
      "ĠA ut",
      "çļĦæ ³",
      "Ġe le",
      "is ms",
      "Ġrel i",
      "ä¹Ł ä¼ļ",
      "f ra",
      "åĳĬè¯ī æĪĳ",
      "æĬ ½",
      "Ġsitu ations",
      "Ġmar ine",
      "æĥ³ è¦ģ",
      "in ci",
      "in al",
      "Ġg ain",
      "Ġdiffere nce",
      "ĠC hat",
      "æľºåĻ¨ äºº",
      "æµģ ç¨ĭ",
      "ç½ĳ ç«Ļ",
      "æľ «",
      "Ġcol or",
      "Ġas pect",
      "ç½ Ĺ",
      "ĠE duc",
      "Ġde ploy",
      "Ġbeaut y",
      "æĤ £",
      "ruct ion",
      "it ut",
      "æĿ Ł",
      "è®© æĪĳä»¬",
      "éķ¿ åº¦",
      "ul es",
      "æ¶ī åıĬ",
      "Ġdig ital",
      "Ġexist ing",
      "ĠO r",
      "\\_ \\_",
      "Ġback ground",
      "çĹ ĩ",
      "æ¯ı å¤©",
      "p ython",
      "Ġ1 2",
      "Ġfarm ers",
      "Ġcontin u",
      "Ġg iven",
      "å°ı æĹ¶",
      "Ġmom ent",
      "J ohn",
      "éĿ¢ å¯¹",
      "Ġint ro",
      "Ġtherap y",
      ") ;",
      "è¿Ķ åĽŀ",
      "Ġ z",
      "å¹¶ åľ¨",
      ") ãĢĤ",
      "Ġaff ord",
      "ä¸ Ŀ",
      "å® ½",
      "Ġ Ã",
      "ĠN ational",
      "èĥ ¡",
      "Ġexercis e",
      "æĲħ æĭĮ",
      "æĶ¯ ä»ĺ",
      "éĺ³ åħī",
      "è¯ ļ",
      "Ġs ect",
      "ĠS u",
      "å¢ŀ éķ¿",
      "ç¾İ ä¸½",
      "Ġw a",
      "ä»¥ä¸ĭæĺ¯ ä¸ĢäºĽ",
      "Ġ ill",
      "èĽĭ ç³ķ",
      "æ¸ħ æĻ",
      "et ry",
      "æ¢ ¦",
      "ç¾İ åĽ½",
      "ä» į",
      "one y",
      "Ġecosystem s",
      "æĮĩ å¯¼",
      "d ef",
      "9 9",
      "æŁ Ķ",
      "pp ed",
      "Ġlim it",
      "çİ ī",
      "Ġacad emic",
      "Ġrestaur ants",
      "Ġhe ad",
      "ä¿¡ ä»»",
      "ast ers",
      "å² ģ",
      "1 4",
      "ak ers",
      "æł ¡",
      "A s",
      "é«ĺ æķĪ",
      "y n",
      "ph as",
      "ç¨ĭ åº¦",
      "è¾ £",
      "ä¸Ĭ éĿ¢",
      "å®¶ å±ħ",
      "ter m",
      "ç¾İ é£Ł",
      "Ġo vers",
      "å® ĺ",
      "Ġind ic",
      "ĠY our",
      "S t",
      "å½¢ è±¡",
      "è´ ¡",
      "åº Ĭ",
      "ĠS c",
      "ag ra",
      "çľŁ æŃ£",
      "o int",
      "id s",
      "are nt",
      "éĵ ¶",
      "èģ Ĭ",
      "Ġreg ular",
      "ä¼ĺ ç§Ģ",
      "Ġcol le",
      "çĸ ĳ",
      "Ġsub ject",
      "Ġgreat er",
      "Ġst ore",
      "åŁ¹ è®Ń",
      "Ġim ag",
      "Ġan sw",
      "Ġsp ot",
      "ä½ Ļ",
      "åĪĨ åŃĲ",
      "Ġaud ience",
      "p et",
      "Ġv ers",
      "Ġtra il",
[...]
